<unk>	0
<s>	0
</s>	0
_>	-0
<_>	-1
าร	-2
อง	-3
ี่	-4
การ	-5
าน	-6
ที่	-7
่า	-8
ํา	-9
ระ	-10
ับ	-11
้า	-12
แล	-13
าม	-14
่อ	-15
ัน	-16
ด้	-17
รา	-18
er	-19
และ	-20
on	-21
ีย	-22
าก	-23
ือ	-24
เป	-25
คร	-26
่ง	-27
ัง	-28
ใน	-29
าย	-30
ประ	-31
้อ	-32
้น	-33
ให	-34
็น	-35
ของ	-36
ได้	-37
ม่	-38
ers	-39
เพ	-40
ิน	-41
ัก	-42
คว	-43
erson	-44
หน	-45
person	-46
่น	-47
ื่อ	-48
เก	-49
ร์	-50
้ง	-51
ัด	-52
เป็น	-53
ริ	-54
มี	-55
่ว	-56
><_>	-57
กร	-58
ความ	-59
เล	-60
มา	-61
หล	-62
ี้	-63
ให้	-64
ติ	-65
รับ	-66
เร	-67
าง	-68
ู้	-69
งาน	-70
วิ	-71
,<_>	-72
เท	-73
อย	-74
ไม่	-75
่าง	-76
จะ	-77
ภา	-78
้อง	-79
่อง	-80
อน	-81
อก	-82
คุ	-83
ทย	-84
<_>1	-85
เข	-86
ตั	-87
<_>2	-88
เว	-89
ตร	-90
ว่า	-91
<_><	-92
เด	-93
อบ	-94
ไป	-95
ใช	-96
กล	-97
รม	-98
อร์	-99
จาก	-100
ิด	-101
เส	-102
เม	-103
นี้	-104
วย	-105
กับ	-106
ทํา	-107
ื่อง	-108
อา	-109
in	-110
0<_>	-111
บบ	-112
สุ	-113
ทั	-114
หม	-115
ผู้	-116
บริ	-117
โด	-118
<_>(	-119
่ม	-120
เช	-121
.<_>	-122
คุณ	-123
)<_>	-124
ดี	-125
an	-126
ัย	-127
ู่	-128
เพื่อ	-129
หร	-130
ษา	-131
แต	-132
ึก	-133
้าน	-134
่าน	-135
รี	-136
โดย	-137
ทาง	-138
้อม	-139
กัน	-140
ภาพ	-141
าส	-142
ใช้	-143
ลิ	-144
ทุ	-145
ียน	-146
ตัว	-147
นา	-148
or	-149
เน	-150
ั้น	-151
ูก	-152
ึง	-153
็บ	-154
้าง	-155
ลง	-156
หา	-157
้ว	-158
คน	-159
หรือ	-160
วัน	-161
ต์	-162
พร	-163
ลา	-164
ชา	-165
สม	-166
บุ	-167
ไทย	-168
ต้อง	-169
ต่อ	-170
สิ	-171
สน	-172
เจ	-173
ด้วย	-174
สํา	-175
ี่ย	-176
ใจ	-177
ัญ	-178
ื้อ	-179
สาม	-180
อย่าง	-181
ปี	-182
าล	-183
วน	-184
เรา	-185
ึ่ง	-186
เคร	-187
at	-188
ทร	-189
ก็	-190
es	-191
ําน	-192
ar	-193
พิ	-194
จัด	-195
คล	-196
ที	-197
แบบ	-198
en	-199
หว	-200
ราย	-201
เต	-202
่าย	-203
กระ	-204
หน้า	-205
ารถ	-206
สุด	-207
ย์	-208
จํา	-209
ดู	-210
หาร	-211
ณ์	-212
ศึก	-213
<_>-	-214
อุ	-215
กรรม	-216
ค้า	-217
้ํา	-218
เห	-219
เบ	-220
ทั้ง	-221
ตาม	-222
เทศ	-223
สามารถ	-224
ียง	-225
กิ	-226
แล้ว	-227
เว็บ	-228
ชน	-229
ปร	-230
โร	-231
สร	-232
่าว	-233
แต่	-234
เข้า	-235
ทุก	-236
al	-237
มาก	-238
เครื่อง	-239
ูล	-240
<_>3	-241
กา	-242
it	-243
เอ	-244
..	-245
ผล	-246
สา	-247
ธิ	-248
อด	-249
ออก	-250
ศึกษา	-251
ไซ	-252
ใหม่	-253
ถึง	-254
โล	-255
่วน	-256
เกม	-257
คา	-258
วง	-259
วิทย	-260
00	-261
ส์	-262
พระ	-263
กิจ	-264
อล	-265
แน	-266
ติด	-267
เรียน	-268
หรับ	-269
เซ	-270
ขึ	-271
รว	-272
ขึ้น	-273
นัก	-274
วั	-275
สด	-276
บ้าน	-277
สําหรับ	-278
น้ํา	-279
ละ	-280
นํา	-281
ส่วน	-282
สิน	-283
บริการ	-284
ในการ	-285
ราช	-286
รถ	-287
็ก	-288
ชี	-289
ic	-290
สาร	-291
เรื่อง	-292
ช่ว	-293
is	-294
กํา	-295
<_>-<_>	-296
ประเทศ	-297
le	-298
ีก	-299
อยู่	-300
แก	-301
ส่ง	-302
5<_>	-303
ไซต์	-304
สั	-305
ต่าง	-306
ข่าว	-307
ณะ	-308
ตั้ง	-309
บั	-310
ค์	-311
ื่น	-312
ซึ่ง	-313
น์	-314
ั่น	-315
ข้อม	-316
เว็บไซต์	-317
ุด	-318
ิง	-319
ศาส	-320
่วม	-321
รู้	-322
เง	-323
ยัง	-324
ข้อมูล	-325
พร้อม	-326
นิ	-327
ุง	-328
4<_>	-329
:<_>	-330
ุม	-331
สู	-332
ปล	-333
ราคา	-334
ro	-335
แร	-336
ครั	-337
สถ	-338
อม	-339
เลือ	-340
รวม	-341
มือ	-342
ุ่น	-343
่อน	-344
ing	-345
ถูก	-346
สร้าง	-347
พั	-348
โรง	-349
ิต	-350
จัง	-351
ธร	-352
ตร์	-353
ขาย	-354
ion	-355
ข้อ	-356
ยา	-357
as	-358
สง	-359
รั	-360
ไล	-361
โปร	-362
รู	-363
เค	-364
จังหว	-365
ดับ	-366
บุรี	-367
re	-368
ระบบ	-369
th	-370
เพิ	-371
ท่าน	-372
สี	-373
ุ่ม	-374
เมื่อ	-375
<_>“	-376
am	-377
ou	-378
ือน	-379
ทธิ	-380
จังหวัด	-381
หลัง	-382
oo	-383
วด	-384
สินค้า	-385
ือง	-386
เลือก	-387
เปิด	-388
าร์	-389
il	-390
ัพ	-391
เลย	-392
<_>20	-393
เพิ่ม	-394
เจ้า	-395
ไฟ	-396
แข	-397
ศาสตร์	-398
ทีม	-399
นั้น	-400
ed	-401
ธรรม	-402
ซื้อ	-403
ไร	-404
เงิน	-405
ษั	-406
ac	-407
แห	-408
ญา	-409
บา	-410
8<_>	-411
”<_>	-412
คือ	-413
้าย	-414
สิทธิ	-415
มิ	-416
ูน	-417
หนัง	-418
2<_>	-419
พัฒ	-420
ลูก	-421
้งาน	-422
ี่ยว	-423
ผ่าน	-424
and	-425
ธี	-426
สอบ	-427
om	-428
พื	-429
บอล	-430
ใช้งาน	-431
ดา	-432
ตอน	-433
1<_>	-434
กว่า	-435
9<_>	-436
ราะ	-437
ด้าน	-438
อีก	-439
ไม	-440
ได้รับ	-441
ครั้ง	-442
ผลิ	-443
6<_>	-444
รัก	-445
ชม	-446
โคร	-447
ขอ	-448
รูป	-449
เวลา	-450
<_>1<_>	-451
ิก	-452
ผลิต	-453
อาหาร	-454
เหล	-455
าลัย	-456
คํา	-457
บริษั	-458
เย	-459
ร่วม	-460
เศ	-461
เมือง	-462
ลัง	-463
el	-464
ที่มี	-465
วิทยาลัย	-466
นคร	-467
ช่วย	-468
3<_>	-469
Th	-470
บริษัท	-471
กาศ	-472
หาก	-473
<_>2<_>	-474
บร	-475
เภ	-476
หมาย	-477
บน	-478
เล่น	-479
ําร	-480
หั	-481
เห็น	-482
มพ	-483
ครับ	-484
บัน	-485
้ม	-486
et	-487
แสด	-488
โน	-489
าะ	-490
แสดง	-491
พื้น	-492
สําน	-493
เพลง	-494
คม	-495
เอง	-496
ชื่อ	-497
้อย	-498
วจ	-499
7<_>	-500
ทะ	-501
โครง	-502
ไลน์	-503
ประกาศ	-504
ซี	-505
เตอร์	-506
คณะ	-507
แจ	-508
ภาษา	-509
00<_>	-510
สํานัก	-511
ตุ	-512
มัน	-513
ียว	-514
แท	-515
ต้น	-516
แพ	-517
ร้าน	-518
ad	-519
ไว	-520
st	-521
มหา	-522
วก	-523
โม	-524
สะ	-525
ห้อง	-526
พัฒนา	-527
่อย	-528
อื่น	-529
สบ	-530
ลาด	-531
ขา	-532
โย	-533
ที่ย	-534
เกมส์	-535
เกิด	-536
ชาติ	-537
แห่ง	-538
ณา	-539
ent	-540
ุน	-541
หลาย	-542
<_>25	-543
การศึกษา	-544
สัง	-545
ออน	-546
ค่า	-547
ค่	-548
สุข	-549
ch	-550
ิล	-551
โลก	-552
บล	-553
เฉ	-554
อาจ	-555
็ด	-556
ด์	-557
ใหญ	-558
กัด	-559
ธุ	-560
ภาย	-561
เกี่ยว	-562
้อน	-563
านี	-564
ri	-565
ทําให้	-566
อะ	-567
ชุม	-568
ol	-569
แผ	-570
ทั่ว	-571
ออนไลน์	-572
กรณ์	-573
สูง	-574
เขา	-575
ท์	-576
ริม	-577
ตํา	-578
หลัก	-579
ดัง	-580
กรม	-581
เร็	-582
ที่จะ	-583
หมด	-584
นน	-585
แต่ง	-586
ใหญ่	-587
เปล	-588
บาท	-589
บาง	-590
ียด	-591
อุป	-592
...<_>	-593
วิธี	-594
กก	-595
ภู	-596
แม	-597
ัคร	-598
ต้องการ	-599
การณ์	-600
ว์	-601
โทร	-602
<_>3<_>	-603
หนึ่ง	-604
to	-605
ืน	-606
ฟรี	-607
วัด	-608
ณฑ	-609
แม่	-610
เที่ย	-611
แฟ	-612
ชั่น	-613
บท	-614
เลข	-615
ฐาน	-616
ที่สุด	-617
<_>5	-618
กลุ่ม	-619
ก่อน	-620
บริหาร	-621
โครงการ	-622
ล์	-623
ชั้น	-624
ประจํา	-625
พบ	-626
รอง	-627
แรก	-628
สมัคร	-629
<_>201	-630
คาร	-631
ถือ	-632
เสริม	-633
กําลัง	-634
ดํา	-635
สมา	-636
<_>"	-637
ผม	-638
อุปกรณ์	-639
ภาค	-640
สิ่ง	-641
ไม่มี	-642
คลิ	-643
สาย	-644
อัน	-645
!<_>	-646
จน	-647
id	-648
เผ	-649
บัติ	-650
เที่ยว	-651
สํานักงาน	-652
กรุง	-653
เพราะ	-654
กิจกรรม	-655
อั	-656
ภัย	-657
ไม้	-658
ศูน	-659
้าร	-660
ห์	-661
จริ	-662
เขต	-663
รุ่น	-664
<_>,<_>	-665
ไข	-666
ศูนย์	-667
of	-668
สถาน	-669
เติ	-670
ยน	-671
us	-672
ใด	-673
ของคุณ	-674
ี่ยน	-675
เสีย	-676
เนื้อ	-677
ักษ	-678
ไว้	-679
ฏิ	-680
เทพ	-681
<_>4	-682
ที่น	-683
วิต	-684
เรีย	-685
กกี้	-686
กี	-687
ตรวจ	-688
สวย	-689
เปลี่ยน	-690
ow	-691
ต้	-692
un	-693
ปฏิ	-694
บาล	-695
เดียว	-696
ap	-697
,00	-698
แจ้ง	-699
ประก	-700
เด็ก	-701
ag	-702
ุก	-703
มหาวิทยาลัย	-704
ียม	-705
ปัญ	-706
เช่น	-707
จึง	-708
โอ	-709
เกี่ยวกับ	-710
ละเอ	-711
ต่างๆ	-712
ธ์	-713
ล่า	-714
คิด	-715
ปรับ	-716
หัว	-717
ter	-718
"<_>	-719
ละเอียด	-720
บัญ	-721
ช่วง	-722
ชีวิต	-723
เศษ	-724
จํากัด	-725
เทค	-726
จําน	-727
เบียน	-728
ปั	-729
กลาง	-730
องค์	-731
สิทธิ์	-732
เดิน	-733
หมู่	-734
ทะเบียน	-735
แนะ	-736
คุกกี้	-737
ยี	-738
ภั	-739
ลด	-740
็ม	-741
จัดการ	-742
ation	-743
นาด	-744
ig	-745
พื้นที่	-746
แรง	-747
ื่อน	-748
หนังส	-749
วี	-750
อิน	-751
ot	-752
ขนาด	-753
จริง	-754
ทํางาน	-755
วิทยา	-756
เนิน	-757
วันนี้	-758
เติม	-759
ากร	-760
In	-761
ct	-762
ธานี	-763
จํานวน	-764
ประสบ	-765
ิม	-766
เทคโน	-767
สนใจ	-768
สอง	-769
เทคโนโล	-770
ีน	-771
พัก	-772
หนังสือ	-773
ve	-774
พิเศษ	-775
ติดต่อ	-776
เทคโนโลยี	-777
ธุร	-778
สู่	-779
ตก	-780
แผน	-781
ระดับ	-782
กลับ	-783
ทั้งหมด	-784
็ต	-785
ณฑ์	-786
เนื่อง	-787
ทอง	-788
กรุงเทพ	-789
ใส	-790
พล	-791
ai	-792
ine	-793
ดําเนิน	-794
นะ	-795
ฬา	-796
ail	-797
คอม	-798
มีการ	-799
อํา	-800
เริ	-801
คุณภาพ	-802
ธุรกิจ	-803
บรร	-804
ตลาด	-805
ภายใน	-806
ประเทศไทย	-807
เสน	-808
▁<	-809
ชุด	-810
โหล	-811
&<_>	-812
วิชา	-813
ถนน	-814
ay	-815
อี	-816
และการ	-817
เชียง	-818
ทุน	-819
โหลด	-820
เผย	-821
<_>&<_>	-822
เหมา	-823
เชื่อ	-824
-1	-825
St	-826
จุ	-827
ฟ้า	-828
<_>10	-829
ค่ะ	-830
เพียง	-831
มีความ	-832
ค้น	-833
อําเภ	-834
em	-835
ล่าสุด	-836
เกษ	-837
เริ่ม	-838
ั่ง	-839
เหตุ	-840
ถ้า	-841
Ch	-842
...	-843
เดือน	-844
่วย	-845
หย	-846
แด	-847
าศ	-848
ook	-849
เก็บ	-850
แนะนํา	-851
ยะ	-852
ผ้า	-853
นอก	-854
um	-855
มาณ	-856
สมาช	-857
สื่อ	-858
op	-859
ิว	-860
กฤ	-861
ใต้	-862
มห	-863
ตําบล	-864
eb	-865
สาว	-866
สมาชิก	-867
ุต	-868
ถาม	-869
<_>0	-870
ตรง	-871
ตรี	-872
ใบ	-873
กีฬา	-874
โรงเรียน	-875
อื่นๆ	-876
เสียง	-877
ตา	-878
<_>4<_>	-879
ขัน	-880
จัก	-881
เซอร์	-882
ศิล	-883
ภัณฑ์	-884
บาย	-885
เพิ่มเติม	-886
พาะ	-887
กรุ	-888
<_>=	-889
ศิลป	-890
เฉพาะ	-891
ไม่ได้	-892
รัฐ	-893
แพร	-894
-<_>	-895
คะ	-896
แบ	-897
ไอ	-898
lo	-899
ชอบ	-900
แข่ง	-901
ลูกค้า	-902
ก่อ	-903
ฟุต	-904
ลํา	-905
<_>6	-906
ที่ดี	-907
เร็ว	-908
เหมาะ	-909
ตรา	-910
จะเป็น	-911
วิจ	-912
<_>:<_>	-913
ช่อง	-914
แนว	-915
ภูมิ	-916
บู	-917
ยม	-918
คัญ	-919
ความรู้	-920
นด์	-921
ับสน	-922
ยก	-923
เอก	-924
ประสบการณ์	-925
อนุ	-926
im	-927
ตล	-928
พัน	-929
ชร	-930
สําคัญ	-931
้าว	-932
the	-933
อําเภอ	-934
สั่ง	-935
ดิน	-936
คง	-937
การใช้งาน	-938
กอง	-939
หน้าที่	-940
ใคร	-941
เธ	-942
ตะ	-943
วร์	-944
ท่อง	-945
เสนอ	-946
ce	-947
ดิ	-948
ง่าย	-949
แพร่	-950
ประกอบ	-951
อัง	-952
พอ	-953
ปัญหา	-954
กฤษ	-955
ศรี	-956
ับสนุน	-957
เล็ก	-958
สุขภาพ	-959
เพื่อน	-960
ปฏิบัติ	-961
บุค	-962
สนับสนุน	-963
พา	-964
แกรม	-965
ของเรา	-966
ฟุตบอล	-967
ยุ	-968
จ้าง	-969
หน่าย	-970
แป	-971
รายละเอียด	-972
>,<_>	-973
ากาศ	-974
บุคคล	-975
ยาย	-976
<_>5<_>	-977
one	-978
เอา	-979
แก่	-980
จําหน่าย	-981
ess	-982
<_>256	-983
ลอง	-984
กล่าว	-985
หว่าง	-986
ออกแบบ	-987
ฟัง	-988
หนด	-989
คู่	-990
ยนต์	-991
,000<_>	-992
่านั้น	-993
หญ	-994
ur	-995
จีน	-996
ฟอร์	-997
รายงาน	-998
อะไร	-999
อาคาร	-1000
ew	-1001
เพชร	-1002
มาย	-1003
สอน	-1004
ิ่ง	-1005
บัญชี	-1006
กําหนด	-1007
ดูแล	-1008
รายการ	-1009
อังกฤษ	-1010
ยู	-1011
เข้าร	-1012
รอบ	-1013
ทัน	-1014
พวก	-1015
ประมาณ	-1016
ตัด	-1017
ประเภ	-1018
ub	-1019
ตอบ	-1020
ปรา	-1021
ปก	-1022
สัญ	-1023
ั่ว	-1024
เตร	-1025
มพัน	-1026
ประชุม	-1027
โปรแกรม	-1028
ณี	-1029
อาย	-1030
ให้บริการ	-1031
ชนะ	-1032
เกษตร	-1033
ที่ไม่	-1034
ชีพ	-1035
ผิด	-1036
วน์	-1037
ชาย	-1038
ปิด	-1039
หาย	-1040
อิ	-1041
มพ์	-1042
ประเภท	-1043
ระหว่าง	-1044
วาง	-1045
;<_>	-1046
ท่องเที่ยว	-1047
เหม	-1048
ข้อความ	-1049
กรรมการ	-1050
โต	-1051
วร	-1052
พิมพ์	-1053
ราง	-1054
ียบ	-1055
แทน	-1056
-2	-1057
ut	-1058
จิ	-1059
ทิ	-1060
ถ่าย	-1061
ทําการ	-1062
เคล	-1063
ตอนที่	-1064
ทรัพ	-1065
สาห	-1066
<_>7	-1067
ได้ที่	-1068
ชิ	-1069
▁<_>	-1070
ต่อไป	-1071
ัส	-1072
โพ	-1073
อยาก	-1074
วิทยาศาสตร์	-1075
se	-1076
ราว	-1077
ทาน	-1078
เท่านั้น	-1079
ิ่น	-1080
ี่ป	-1081
หน่วย	-1082
ยอด	-1083
ี้ย	-1084
แก้	-1085
ang	-1086
for	-1087
ประจําปี	-1088
วัต	-1089
หญิง	-1090
ขน	-1091
บัตร	-1092
ควร	-1093
เต็ม	-1094
–<_>	-1095
ทั่วไป	-1096
ญี่ป	-1097
our	-1098
<_>9	-1099
ญี่ปุ่น	-1100
น้อย	-1101
ี่ยม	-1102
โช	-1103
สังคม	-1104
เขียน	-1105
ขสิทธิ์	-1106
ort	-1107
ศัพ	-1108
สภาพ	-1109
วัล	-1110
สัต	-1111
ตลอด	-1112
ศัพท์	-1113
สูตร	-1114
ทธ	-1115
ate	-1116
คอน	-1117
ab	-1118
ลิขสิทธิ์	-1119
เหน	-1120
เสื้อ	-1121
อยู่ใน	-1122
แข่งขัน	-1123
ฉัน	-1124
ชาว	-1125
ประกัน	-1126
<_>8	-1127
อร์ด	-1128
ak	-1129
ท้อง	-1130
กรุณา	-1131
อายุ	-1132
ir	-1133
ผู	-1134
มน	-1135
เดินทาง	-1136
วิจัย	-1137
ผลิตภัณฑ์	-1138
อุต	-1139
บอก	-1140
ตน	-1141
าจ	-1142
ป้อง	-1143
โฆ	-1144
จากการ	-1145
ul	-1146
ตั้งแต่	-1147
จะมี	-1148
จุด	-1149
เคราะ	-1150
โก	-1151
ล้าน	-1152
เคราะห์	-1153
โรค	-1154
อุตสาห	-1155
ลีก	-1156
ผิว	-1157
Ph	-1158
ht	-1159
แหล	-1160
The	-1161
เตรียม	-1162
ขณะ	-1163
มพันธ์	-1164
ชัย	-1165
โฆษ	-1166
IN	-1167
กาย	-1168
นาย	-1169
รางวัล	-1170
หลี	-1171
pp	-1172
พุ	-1173
มาตร	-1174
เก่า	-1175
<_>10<_>	-1176
สถา	-1177
อร	-1178
กล้	-1179
แรม	-1180
Pro	-1181
ให้กับ	-1182
เหมือน	-1183
ปัจ	-1184
เกา	-1185
พู	-1186
od	-1187
สรร	-1188
ทางการ	-1189
ตรวจสอบ	-1190
รักษา	-1191
ข่าวสาร	-1192
ลาย	-1193
สัม	-1194
ใส่	-1195
ไหน	-1196
กฎ	-1197
ขอบ	-1198
โอก	-1199
อุตสาหกรรม	-1200
เคย	-1201
มือถือ	-1202
เพื่อให้	-1203
็ง	-1204
คืน	-1205
น่า	-1206
เกาหลี	-1207
บทความ	-1208
เชียงใหม่	-1209
ซ์	-1210
๊ก	-1211
มอบ	-1212
ประชา	-1213
โซ	-1214
ทย์	-1215
นาน	-1216
ติดตาม	-1217
การใช้	-1218
><_><	-1219
Re	-1220
ชั่ว	-1221
ที่นี่	-1222
โทรศัพท์	-1223
ity	-1224
ไฟฟ้า	-1225
ia	-1226
est	-1227
ยาว	-1228
็อ	-1229
สัตว์	-1230
ริญ	-1231
ราบ	-1232
หนัก	-1233
สวน	-1234
ประโย	-1235
เธอ	-1236
โยบาย	-1237
ครบ	-1238
โอกาส	-1239
โรงแรม	-1240
ดาวน์	-1241
เหลือ	-1242
ได้อย่าง	-1243
สะด	-1244
แฟน	-1245
้าม	-1246
<_>–<_>	-1247
by	-1248
คัด	-1249
ผลงาน	-1250
ีย์	-1251
มั	-1252
are	-1253
งาม	-1254
คลิก	-1255
มอ	-1256
จอง	-1257
ip	-1258
ขว	-1259
ค้นหา	-1260
พรร	-1261
แหน	-1262
ตัวเอง	-1263
01	-1264
วล	-1265
แต่ละ	-1266
มากมาย	-1267
ครอบ	-1268
มั่น	-1269
ร้อน	-1270
ประสิทธิ	-1271
Com	-1272
ญาต	-1273
all	-1274
กุ	-1275
บิน	-1276
ียร์	-1277
โปรด	-1278
Sh	-1279
แอ	-1280
็จ	-1281
ชน์	-1282
ยิน	-1283
พนัก	-1284
วัติ	-1285
ra	-1286
ปรุง	-1287
หมวด	-1288
เด็ด	-1289
ใกล้	-1290
กล้อง	-1291
อากาศ	-1292
ธาร	-1293
นโยบาย	-1294
สต	-1295
art	-1296
ทร์	-1297
ัม	-1298
แหน่ง	-1299
รวมถึง	-1300
ประโยชน์	-1301
นี	-1302
เส้น	-1303
หลังจาก	-1304
ตําแหน่ง	-1305
25	-1306
กระท	-1307
ลักษ	-1308
วเตอร์	-1309
อันดับ	-1310
ore	-1311
เฟ	-1312
็ค	-1313
หนอง	-1314
คอมพิ	-1315
ue	-1316
ver	-1317
ดอก	-1318
นัด	-1319
ทัวร์	-1320
ทรัพย์	-1321
ขับ	-1322
การ์	-1323
ครัว	-1324
ระยะ	-1325
พนักงาน	-1326
คอมพิวเตอร์	-1327
ER	-1328
จับ	-1329
ประสิทธิภาพ	-1330
โฆษณา	-1331
พระราช	-1332
ครู	-1333
ยิ่ง	-1334
An	-1335
นิยม	-1336
จร	-1337
ies	-1338
แปลง	-1339
ป้องกัน	-1340
่าร	-1341
เดิม	-1342
อัพ	-1343
กระบ	-1344
สถานที่	-1345
่ํา	-1346
อนุญาต	-1347
ประวัติ	-1348
เรียนรู้	-1349
if	-1350
ปลอด	-1351
จักร	-1352
แค่	-1353
ราชการ	-1354
AN	-1355
รษ	-1356
ติก	-1357
เกิน	-1358
สะดวก	-1359
โค	-1360
Con	-1361
โมง	-1362
ประช	-1363
เช่า	-1364
ขั้น	-1365
?<_>	-1366
เข้าสู่	-1367
พูด	-1368
เรียง	-1369
ภาษ	-1370
วัย	-1371
แดง	-1372
ชนิด	-1373
เร็จ	-1374
<_>7<_>	-1375
ice	-1376
พน	-1377
สล	-1378
ตู้	-1379
><_>(	-1380
ความเป็น	-1381
ok	-1382
ัฐ	-1383
ist	-1384
ข้าง	-1385
สนาม	-1386
ออกมา	-1387
แก่น	-1388
ชุมชน	-1389
สัญญา	-1390
เวอร์	-1391
สําเร็จ	-1392
กรณี	-1393
วิเคราะห์	-1394
กิน	-1395
เป็นการ	-1396
เผยแพร่	-1397
เนื่องจาก	-1398
ครอง	-1399
Ad	-1400
จ่าย	-1401
<_>202	-1402
เมน	-1403
ท้าย	-1404
up	-1405
ี้ยง	-1406
เหนือ	-1407
ดําเนินการ	-1408
เบรา	-1409
ที่ผ่าน	-1410
ทรง	-1411
มูล	-1412
แน่น	-1413
ผลการ	-1414
<_>6<_>	-1415
เนื้อหา	-1416
ดาวน์โหลด	-1417
คุม	-1418
ailand	-1419
พรี	-1420
ปัจจุ	-1421
เบอร์	-1422
เซีย	-1423
นักศึกษา	-1424
แถ	-1425
สถาบัน	-1426
บูร	-1427
พุทธ	-1428
line	-1429
คลิป	-1430
สาธาร	-1431
เจ้าหน้าที่	-1432
ปัจจุบัน	-1433
บุคล	-1434
อาชีพ	-1435
จําเป็น	-1436
ard	-1437
สาน	-1438
ลบ	-1439
ออ	-1440
ยอม	-1441
ติดตั้ง	-1442
บุคลากร	-1443
<_>=><_>	-1444
คุณสามารถ	-1445
มาร	-1446
แหล่ง	-1447
ดร	-1448
วัฒ	-1449
มาตรฐาน	-1450
ส่งเสริม	-1451
เข้าร่วม	-1452
ซีร	-1453
ตู	-1454
ไม่ว่า	-1455
ON	-1456
ยืน	-1457
ทรวง	-1458
เชิง	-1459
แมน	-1460
ร้อง	-1461
ปลอดภัย	-1462
ยาน	-1463
ขอน	-1464
ควบ	-1465
สมัย	-1466
ไม่สามารถ	-1467
ish	-1468
ong	-1469
เหมาะสม	-1470
99	-1471
มอง	-1472
ดีโอ	-1473
เลี้ยง	-1474
อําน	-1475
เมตร	-1476
เหล็ก	-1477
อย่างไร	-1478
ท่า	-1479
านคร	-1480
แข็ง	-1481
่อม	-1482
สงค์	-1483
เน็ต	-1484
วันที่	-1485
กด	-1486
sh	-1487
พฤ	-1488
วา	-1489
ธุ์	-1490
เรือ	-1491
องค์กร	-1492
แม้	-1493
นอกจาก	-1494
ชิ้น	-1495
สเป	-1496
ปรับปรุง	-1497
พิธี	-1498
ทุกคน	-1499
รถยนต์	-1500
กระทรวง	-1501
โฟ	-1502
ทบุรี	-1503
เราจะ	-1504
รูปแบบ	-1505
ประสงค์	-1506
ละคร	-1507
จิต	-1508
ข่าย	-1509
สาขา	-1510
,<_><	-1511
เยี่ยม	-1512
ที่เป็น	-1513
เจ้าของ	-1514
โท	-1515
ord	-1516
ทราบ	-1517
เท่า	-1518
แบ่ง	-1519
Thailand	-1520
ลุ	-1521
ิร์	-1522
หลวง	-1523
ชั่วโมง	-1524
ไต	-1525
ite	-1526
os	-1527
พี	-1528
พยา	-1529
ต่างประเทศ	-1530
En	-1531
iv	-1532
ชล	-1533
จัน	-1534
App	-1535
การจัด	-1536
และความ	-1537
On	-1538
og	-1539
เคลื่อน	-1540
ไฟล์	-1541
แพทย์	-1542
โรงงาน	-1543
ment	-1544
<_>255	-1545
Al	-1546
ถิ่น	-1547
่วง	-1548
ขอนแก่น	-1549
•<_>	-1550
ฟอร์ม	-1551
ประชาชน	-1552
การบริหาร	-1553
ทด	-1554
แก้ไข	-1555
ผู้อ	-1556
เข้ามา	-1557
ถูกต้อง	-1558
ป์	-1559
ฝาก	-1560
รั่ง	-1561
ทา	-1562
แขวง	-1563
oc	-1564
ตูน	-1565
ียร	-1566
อบรม	-1567
ฝรั่ง	-1568
นักเรียน	-1569
Se	-1570
งบ	-1571
ควบคุม	-1572
ขาว	-1573
วรร	-1574
ุ่ง	-1575
หลาก	-1576
วัสด	-1577
<_>12	-1578
ราคาถูก	-1579
ud	-1580
มะ	-1581
ทัศ	-1582
ช่าง	-1583
สําหรับการ	-1584
pl	-1585
ive	-1586
ํารวจ	-1587
ธาน	-1588
ตกแต่ง	-1589
มหานคร	-1590
ได้รับการ	-1591
AR	-1592
พยาบาล	-1593
รับสมัคร	-1594
ลม	-1595
แนน	-1596
%<_>	-1597
โปรโม	-1598
ที่ได้	-1599
ร่าง	-1600
เครือ	-1601
ภาษาอังกฤษ	-1602
คู	-1603
จบ	-1604
ขอบคุณ	-1605
ครั้งที่	-1606
เว็บไซต์นี้	-1607
ปาก	-1608
แตก	-1609
ทีมงาน	-1610
Pl	-1611
ob	-1612
วะ	-1613
ack	-1614
สงวน	-1615
ลงทุน	-1616
ลิง	-1617
พรีเม	-1618
มากกว่า	-1619
<_>©	-1620
ในช่วง	-1621
<_>><_>	-1622
สห	-1623
ุษ	-1624
แปล	-1625
พ่อ	-1626
คุ้ม	-1627
ดน	-1628
ิญ	-1629
แช	-1630
หวย	-1631
.00<_>	-1632
วิชาการ	-1633
ที่ผ่านมา	-1634
ame	-1635
ประตู	-1636
โป	-1637
ที่คุณ	-1638
Cl	-1639
ปลา	-1640
ชําร	-1641
มง	-1642
ีด	-1643
SE	-1644
จอ	-1645
ดวง	-1646
กรุงเทพมหานคร	-1647
ราค	-1648
!!<_>	-1649
ไม่ต้อง	-1650
แท้	-1651
หลากหลาย	-1652
าสั	-1653
พลัง	-1654
<_>11	-1655
ย้าย	-1656
เอกสาร	-1657
ตี	-1658
ุป	-1659
สต์	-1660
เวณ	-1661
แชม	-1662
คะแนน	-1663
ตาร	-1664
วัตถ	-1665
ี่ยง	-1666
เราม	-1667
พ้น	-1668
กับการ	-1669
ประธาน	-1670
เพื่อการ	-1671
สระ	-1672
สึก	-1673
ฝ่าย	-1674
กฎหมาย	-1675
ตอนนี้	-1676
เงื่อน	-1677
erv	-1678
แพง	-1679
และมี	-1680
ของการ	-1681
จด	-1682
age	-1683
ขาด	-1684
เด่น	-1685
เทิง	-1686
แผ่น	-1687
นครศรี	-1688
กรุงเทพฯ	-1689
เกิดขึ้น	-1690
ian	-1691
สนุก	-1692
หัส	-1693
ใช่	-1694
เย็น	-1695
ซึ่งเป็น	-1696
าสัมพันธ์	-1697
บูรณ์	-1698
ของผู้	-1699
บริเวณ	-1700
CO	-1701
ฉบ	-1702
คดี	-1703
ชัด	-1704
ขวัญ	-1705
เดีย	-1706
ดังกล่าว	-1707
รอ	-1708
เมล	-1709
ประชาสัมพันธ์	-1710
ทะเล	-1711
สิ้น	-1712
ารย์	-1713
ดนตรี	-1714
ว่าจะ	-1715
ก่อสร้าง	-1716
หลักสูตร	-1717
ID	-1718
ff	-1719
ดิต	-1720
Phone	-1721
สอบถาม	-1722
ความคิด	-1723
บันเทิง	-1724
หน่วยงาน	-1725
เปิดตัว	-1726
เรื่องราว	-1727
กว	-1728
ครี	-1729
ข้อง	-1730
ธิการ	-1731
เทศบาล	-1732
แค	-1733
ทัย	-1734
ป่า	-1735
หนุ่ม	-1736
<_>8<_>	-1737
สื่อสาร	-1738
มาจาก	-1739
วิธีการ	-1740
Sp	-1741
สเตอร์	-1742
คณะกรรมการ	-1743
LE	-1744
av	-1745
ฆ์	-1746
ใดๆ	-1747
บ้าง	-1748
ป้าย	-1749
ระบุ	-1750
ตะวัน	-1751
การ์ตูน	-1752
Tr	-1753
pro	-1754
ตาราง	-1755
โบ	-1756
ากล	-1757
แสง	-1758
็อก	-1759
รองรับ	-1760
rip	-1761
ดูก	-1762
รษฐ	-1763
สงฆ์	-1764
De	-1765
wit	-1766
เมิน	-1767
ทัศน์	-1768
เศรษฐ	-1769
ษฎ	-1770
อเม	-1771
เรียก	-1772
Le	-1773
ารา	-1774
พฤติ	-1775
หยุด	-1776
เชิญ	-1777
ไน	-1778
ดีต	-1779
ฉบับ	-1780
ก็ได้	-1781
con	-1782
ยัน	-1783
ศาสนา	-1784
ครอบครัว	-1785
ฝึก	-1786
เชื้อ	-1787
พวกเขา	-1788
แน่นอน	-1789
เงื่อนไข	-1790
OR	-1791
ข้าว	-1792
อย่า	-1793
แลนด์	-1794
Sc	-1795
รด	-1796
Res	-1797
ราม	-1798
ต่ํา	-1799
อเมริ	-1800
นําเสนอ	-1801
ประเมิน	-1802
เครื่องมือ	-1803
com	-1804
=<_>	-1805
<_>24<_>	-1806
ผู้บริหาร	-1807
ได้รับความ	-1808
IS	-1809
vi	-1810
ุธ	-1811
ปกติ	-1812
เก็ต	-1813
เกียร	-1814
จะต้อง	-1815
iz	-1816
คุย	-1817
สภา	-1818
สัก	-1819
เท้า	-1820
อัพเด	-1821
เข้าสู่ระบบ	-1822
ass	-1823
ill	-1824
ure	-1825
ยาง	-1826
ล่าง	-1827
โดยมี	-1828
ได้เลย	-1829
ด้วยการ	-1830
IT	-1831
แซ	-1832
ซับ	-1833
โอน	-1834
ิค	-1835
act	-1836
ผสม	-1837
ลึก	-1838
ัติ	-1839
าระ	-1840
ื่ม	-1841
สว	-1842
าค	-1843
เชื่อม	-1844
oun	-1845
ไหม	-1846
มาที่	-1847
อัตรา	-1848
ส่วนตัว	-1849
.1	-1850
IP	-1851
รวบ	-1852
สไต	-1853
จะได้	-1854
Te	-1855
ry	-1856
ดื่ม	-1857
ในปี	-1858
ธนา	-1859
ช่วยให้	-1860
เกี่ยวข้อง	-1861
รส	-1862
ัล	-1863
ืบ	-1864
๊ะ	-1865
แบร	-1866
<_>9<_>	-1867
เกียรติ	-1868
sk	-1869
sp	-1870
สป	-1871
ทอด	-1872
ศึกษ	-1873
ตัวอย่าง	-1874
หมวดหมู่	-1875
02	-1876
ug	-1877
gle	-1878
เกล	-1879
าร์ท	-1880
ebook	-1881
สไตล์	-1882
เบราว์	-1883
งบประมาณ	-1884
เบราว์เซอร์	-1885
ant	-1886
พิษ	-1887
50<_>	-1888
เปลี่ยนแปลง	-1889
กฏ	-1890
สัย	-1891
อาด	-1892
ราชสี	-1893
หุ	-1894
นาม	-1895
ื้อง	-1896
ธนาคาร	-1897
ท้องถิ่น	-1898
ธรรมชาติ	-1899
Goo	-1900
ทึก	-1901
วัง	-1902
หวัง	-1903
เกาะ	-1904
ain	-1905
ect	-1906
บาด	-1907
ลิม	-1908
กระจ	-1909
พลาส	-1910
ที่ใช้	-1911
แบรนด์	-1912
เดียวกัน	-1913
ช่วยเหลือ	-1914
โจ	-1915
สบาย	-1916
ปล่อย	-1917
รายชื่อ	-1918
ไก	-1919
ind	-1920
วัฒน	-1921
ทันที	-1922
ภายใต้	-1923
ลงทะเบียน	-1924
Ex	-1925
ee	-1926
อุบล	-1927
รับทํา	-1928
เข้าไป	-1929
แฟชั่น	-1930
นอน	-1931
,000	-1932
เจอร์	-1933
กระทํา	-1934
12	-1935
มวล	-1936
ยาก	-1937
เตะ	-1938
โชว์	-1939
สะอาด	-1940
iPhone	-1941
ราชสีมา	-1942
เครือข่าย	-1943
สหร	-1944
เป๋	-1945
=><_>	-1946
ที่น่า	-1947
ost	-1948
โดน	-1949
ชลบุรี	-1950
ผู้หญิง	-1951
สหรัฐ	-1952
อํานาจ	-1953
ปลาย	-1954
รวบรวม	-1955
เข้าใจ	-1956
วัฒนธรรม	-1957
คอ	-1958
ฝัน	-1959
คลอง	-1960
ชําระ	-1961
สาธารณ	-1962
แห่งชาติ	-1963
สัน	-1964
Thai	-1965
ปลูก	-1966
เชีย	-1967
30<_>	-1968
การจอง	-1969
ทุกวัน	-1970
พลาสติก	-1971
ปิ	-1972
end	-1973
rig	-1974
กลง	-1975
ST	-1976
ial	-1977
ไหล	-1978
<_>,	-1979
เสมอ	-1980
สนเทศ	-1981
เจริญ	-1982
รูปภาพ	-1983
สูงสุด	-1984
การจัดการ	-1985
ทีวี	-1986
<_>“<	-1987
ที่สุดใน	-1988
เศรษฐกิจ	-1989
นครราชสีมา	-1990
กาฬ	-1991
เพล	-1992
้วน	-1993
เวล	-1994
นาที	-1995
พลาด	-1996
สถานี	-1997
กระเป๋	-1998
สารสนเทศ	-1999
เชียงราย	-2000
TH	-2001
ik	-2002
ปฐ	-2003
รวด	-2004
สู้	-2005
เป้า	-2006
ืม	-2007
ยาม	-2008
ไหว	-2009
อาการ	-2010
acebook	-2011
ษ์	-2012
พี่	-2013
มวย	-2014
ที่ดิน	-2015
ของท่าน	-2016
<_>...<_>	-2017
tern	-2018
ที่พัก	-2019
ประกวด	-2020
สั่งซื้อ	-2021
ทน	-2022
าว	-2023
ile	-2024
AM	-2025
Un	-2026
เยอ	-2027
ight	-2028
หากคุณ	-2029
Pr	-2030
ยิง	-2031
ราษฎ	-2032
เซ็น	-2033
โปรโมชั่น	-2034
เหร	-2035
้วย	-2036
โรงพยาบาล	-2037
เฮ	-2038
ear	-2039
ศาล	-2040
Cont	-2041
ยังมี	-2042
เกอร์	-2043
ตัดสิน	-2044
เสื้อผ้า	-2045
ซิ	-2046
รัส	-2047
ล้อม	-2048
เลขที่	-2049
พ้นสภาพ	-2050
คัดเลือก	-2051
การแข่งขัน	-2052
+<_>	-2053
เว้น	-2054
เริ่มต้น	-2055
ดาว	-2056
โคว	-2057
นายก	-2058
ปรึก	-2059
คนที่	-2060
ินทร์	-2061
บัง	-2062
ปฐม	-2063
เยอรม	-2064
โครงสร้าง	-2065
แส	-2066
ast	-2067
rom	-2068
ตัน	-2069
เจน	-2070
ซ่อม	-2071
นะครับ	-2072
<_>•<_>	-2073
วิทยาลัยสงฆ์	-2074
pr	-2075
รหัส	-2076
Google	-2077
ราชธานี	-2078
ว่าเป็น	-2079
สงวนลิขสิทธิ์	-2080
แสน	-2081
มนุษ	-2082
ผู้ใช้	-2083
ิช	-2084
<_>19	-2085
<_>200	-2086
บันทึก	-2087
ิศ	-2088
ทุม	-2089
ปริ	-2090
พาน	-2091
สัป	-2092
ยังไม่	-2093
ด้านการ	-2094
คณะวิทยาศาสตร์	-2095
กะ	-2096
าช	-2097
ดาห์	-2098
ปีที่	-2099
ศิลปะ	-2100
สมาคม	-2101
ไปด้วย	-2102
สุดท้าย	-2103
เป็นที่	-2104
OS	-2105
ศัก	-2106
ปทุม	-2107
พรรณ	-2108
วัตถุ	-2109
ตํารวจ	-2110
ซื้อขาย	-2111
du	-2112
บี	-2113
ทั่วโลก	-2114
อุบลราชธานี	-2115
แวด	-2116
แชมป์	-2117
ทุกท่าน	-2118
๋ว	-2119
คาด	-2120
ถุง	-2121
อิต	-2122
เสี่ยง	-2123
ร่วมกับ	-2124
ร่วมมือ	-2125
สัปดาห์	-2126
มาน	-2127
แยก	-2128
แก้ว	-2129
แอร์	-2130
มากขึ้น	-2131
ประสบการณ์ที่ดี	-2132
ork	-2133
มุม	-2134
กลับมา	-2135
คําถาม	-2136
เบื้อง	-2137
คี	-2138
รัม	-2139
าลี	-2140
ิกา	-2141
ปริญ	-2142
พันธุ์	-2143
<_>20<_>	-2144
การทํางาน	-2145
ความต้องการ	-2146
ge	-2147
เว็	-2148
แพ้	-2149
แลก	-2150
ower	-2151
เมนู	-2152
<_>15	-2153
ph	-2154
อัล	-2155
กลาย	-2156
น้อง	-2157
ร้อย	-2158
10	-2159
ie	-2160
บดี	-2161
ล้าง	-2162
▁การ	-2163
right	-2164
หากท่าน	-2165
เป็นต้น	-2166
อีกครั้ง	-2167
ต่อเนื่อง	-2168
ปฏิบัติการ	-2169
ซอย	-2170
ิติ	-2171
สวรร	-2172
<_>18	-2173
ตนเอง	-2174
บอร์ด	-2175
MS	-2176
ink	-2177
min	-2178
คาม	-2179
ยนตร์	-2180
วัสดุ	-2181
>,<_><	-2182
รับรอง	-2183
EN	-2184
ก์	-2185
you	-2186
ทับ	-2187
เซล	-2188
สิ่งที่	-2189
แตกต่าง	-2190
ไม่ว่าจะเป็น	-2191
IC	-2192
US	-2193
บัว	-2194
ไกล	-2195
ชื่น	-2196
>”<_>	-2197
ก็ตาม	-2198
พื้นฐาน	-2199
ฟังเพลง	-2200
<_>13	-2201
ผู้ที่	-2202
ลักษณะ	-2203
หน้าแรก	-2204
ภาพยนตร์	-2205
เป็นอย่าง	-2206
ทหาร	-2207
รัมย์	-2208
ปริญญา	-2209
ศิลปิน	-2210
ฝรั่งเศ	-2211
เสียหาย	-2212
Co	-2213
ime	-2214
ผ่อน	-2215
ย้อน	-2216
สะสม	-2217
อ่อน	-2218
<_>100	-2219
ลักษณ์	-2220
แสดงผล	-2221
บุรีรัมย์	-2222
AL	-2223
AT	-2224
ly	-2225
ram	-2226
รอย	-2227
โมสร	-2228
..<_>	-2229
ก่อให้	-2230
ออกจาก	-2231
รวดเร็ว	-2232
โดยเฉพาะ	-2233
ความคิดเห็น	-2234
นับ	-2235
เจาะ	-2236
วยการ	-2237
นนทบุรี	-2238
รวมทั้ง	-2239
ex	-2240
ยอง	-2241
ตกลง	-2242
ทุ่ง	-2243
อรี่	-2244
ction	-2245
นําไป	-2246
การกระทํา	-2247
นอกจากนี้	-2248
่ะ	-2249
อ้าง	-2250
้อนรับ	-2251
TO	-2252
โภ	-2253
ung	-2254
หวาน	-2255
▁เรา	-2256
เรามี	-2257
ต้นไม้	-2258
กระเป๋า	-2259
ฝรั่งเศส	-2260
ss	-2261
นิ้ว	-2262
ปรึกษา	-2263
ครั้งแรก	-2264
ไท	-2265
หุ้น	-2266
ให้น	-2267
สโมสร	-2268
การค้า	-2269
สังกัด	-2270
HD	-2271
ดม	-2272
<_>‘	-2273
เจ็บ	-2274
วิดีโอ	-2275
สวยงาม	-2276
ไม่ใช่	-2277
ทําความ	-2278
อาจารย์	-2279
อเมริกา	-2280
สัมพันธ์	-2281
be	-2282
per	-2283
คับ	-2284
ียญ	-2285
ดอกไม้	-2286
ดังนั้น	-2287
อีกด้วย	-2288
พรีเมียร์	-2289
ดําเนินงาน	-2290
mar	-2291
ลับ	-2292
วาย	-2293
Cent	-2294
ก้าว	-2295
โควิด	-2296
แวดล้อม	-2297
การบริหารส่วน	-2298
For	-2299
New	-2300
สมุ	-2301
ครีม	-2302
ตั๋ว	-2303
ที่มา	-2304
ขึ้นไป	-2305
ร้านอาหาร	-2306
ไฮ	-2307
เยา	-2308
็อค	-2309
เต็ด	-2310
กิจการ	-2311
ราษฎร์	-2312
อยู่ที่	-2313
น้ําหนัก	-2314
ที่มีความ	-2315
ปา	-2316
ชวน	-2317
ตาย	-2318
ตี้	-2319
เช็ค	-2320
โต๊ะ	-2321
สวรรค์	-2322
อิตาลี	-2323
ตัดสินใจ	-2324
ใช้คุกกี้	-2325
qu	-2326
นาง	-2327
<_>1.	-2328
ไปยัง	-2329
มือสอง	-2330
รัฐบาล	-2331
ร้านค้า	-2332
<_>30<_>	-2333
เป้าหมาย	-2334
Eng	-2335
เซน	-2336
กรอง	-2337
รถไฟ	-2338
สรุป	-2339
อนด์	-2340
เลิก	-2341
แชร์	-2342
เป็นผู้	-2343
ase	-2344
ด่วน	-2345
เยาว	-2346
เล่า	-2347
ยังคง	-2348
อาจจะ	-2349
ในงาน	-2350
พาก	-2351
เจอ	-2352
เอส	-2353
ไก่	-2354
คราม	-2355
เทคน	-2356
เฟอร์	-2357
เหรียญ	-2358
Facebook	-2359
ซู	-2360
ืด	-2361
สิง	-2362
อนิ	-2363
Comm	-2364
ยินดี	-2365
สรรค์	-2366
่านี้	-2367
ทั้งนี้	-2368
ร่างกาย	-2369
ชิง	-2370
ฟัน	-2371
<_>:	-2372
หัวใจ	-2373
ขึ้นมา	-2374
อัพเดท	-2375
ครั้งนี้	-2376
ที่ต้องการ	-2377
Bl	-2378
Su	-2379
โข	-2380
ภาษี	-2381
ห้าม	-2382
จนถึง	-2383
สถิติ	-2384
ไปที่	-2385
กําแพง	-2386
จัดทํา	-2387
ตะวันออก	-2388
ib	-2389
ซอ	-2390
own	-2391
เอฟ	-2392
บัญญ	-2393
ฬิกา	-2394
อยุธ	-2395
อยุธยา	-2396
หมู่ที่	-2397
เยอรมัน	-2398
ชัน	-2399
ตาก	-2400
เน้น	-2401
’<_>	-2402
บัญญัติ	-2403
ide	-2404
อยู	-2405
|<_>	-2406
ยูไน	-2407
<_>14	-2408
ที่เรา	-2409
โดยใช้	-2410
ยูไนเต็ด	-2411
ฝน	-2412
ศว	-2413
โฮ	-2414
ire	-2415
ซี่	-2416
ณิช	-2417
แดน	-2418
ก็จะ	-2419
ค่าย	-2420
ักษร	-2421
เช้า	-2422
เปอร์	-2423
ยืนยัน	-2424
ต่อไปนี้	-2425
เรียงตาม	-2426
ปีการศึกษา	-2427
พรีเมียร์ลีก	-2428
-3	-2429
ign	-2430
ome	-2431
ยุค	-2432
ล้อ	-2433
ดีไซ	-2434
อดีต	-2435
ฮ่อง	-2436
ได้ใน	-2437
<_>12<_>	-2438
<_>100<_>	-2439
ที่เกี่ยวข้อง	-2440
AI	-2441
az	-2442
ถม	-2443
ood	-2444
ชาญ	-2445
บุญ	-2446
ปัต	-2447
mail	-2448
ให้อ	-2449
จริงๆ	-2450
กระทู้	-2451
พร้อมกับ	-2452
สถานการณ์	-2453
สมัครสมาชิก	-2454
และเทคโนโลยี	-2455
Ar	-2456
ฉะ	-2457
ัว	-2458
ูป	-2459
Col	-2460
ell	-2461
นี่	-2462
หาง	-2463
อิง	-2464
เกต	-2465
เปร	-2466
สเปน	-2467
ี่ย์	-2468
กล่อง	-2469
เทียบ	-2470
ซีรีย์	-2471
รับผิด	-2472
น้ํามัน	-2473
หรือไม่	-2474
ทําน	-2475
พอใจ	-2476
มงคล	-2477
อักษร	-2478
ได้แก่	-2479
ผู้อําน	-2480
วัตกรรม	-2481
สืบ	-2482
านุ	-2483
เตือน	-2484
จัดส่ง	-2485
ใช้บริการ	-2486
จี	-2487
ถัง	-2488
<_>16	-2489
ax	-2490
จง	-2491
And	-2492
ust	-2493
จาร	-2494
ทัพ	-2495
ฮิต	-2496
ทักษ	-2497
ระเบ	-2498
ได้ดี	-2499
ภูเก็ต	-2500
tr	-2501
ance	-2502
นะคะ	-2503
พัฒน	-2504
ทดสอบ	-2505
นาฬิกา	-2506
พะ	-2507
All	-2508
ดัน	-2509
สุร	-2510
ไพร	-2511
lish	-2512
ดารา	-2513
นั่น	-2514
วงการ	-2515
สมุทร	-2516
อนิเม	-2517
ยอมรับ	-2518
สงคราม	-2519
ผู้อํานวยการ	-2520
-6	-2521
AS	-2522
โส	-2523
ser	-2524
ลืม	-2525
หิน	-2526
roid	-2527
ขยาย	-2528
อาร์	-2529
แวร์	-2530
10<_>	-2531
นํามา	-2532
าชการ	-2533
มั่นใจ	-2534
รู้สึก	-2535
สมบัติ	-2536
เทคนิค	-2537
หนึ่งใน	-2538
อําเภอเมือง	-2539
วบ	-2540
ขนม	-2541
หอม	-2542
สัมผ	-2543
เทอร์	-2544
ขณะที่	-2545
อิเล็ก	-2546
หมายเลข	-2547
อาจก่อให้	-2548
AC	-2549
ace	-2550
ฟิล	-2551
ณฑิต	-2552
ทรอน	-2553
มุ่ง	-2554
วงจร	-2555
หยัด	-2556
ิกส์	-2557
พบเห็น	-2558
เอเชีย	-2559
ไปแล้ว	-2560
ให้ความ	-2561
กลายเป็น	-2562
ท่านสามารถ	-2563
ไม่ถูกต้อง	-2564
วัตถุประสงค์	-2565
201	-2566
วิน	-2567
อสัง	-2568
พาณิช	-2569
-19<_>	-2570
ว่าคุณ	-2571
หัวข้อ	-2572
ได้ตาม	-2573
ประหยัด	-2574
กาล	-2575
ชี้	-2576
นั่ง	-2577
บรรย	-2578
ให้คุณ	-2579
ความรัก	-2580
เข้าถึง	-2581
RO	-2582
ณุ	-2583
ศี	-2584
app	-2585
อัต	-2586
able	-2587
นิธิ	-2588
อุดร	-2589
),<_>	-2590
อีเมล	-2591
เฉลิม	-2592
่ารัก	-2593
ดีไซน์	-2594
บัณฑิต	-2595
เครดิต	-2596
เชี่ยว	-2597
บรรยากาศ	-2598
td	-2599
opy	-2600
โรป	-2601
นักเตะ	-2602
ย้อนหลัง	-2603
15	-2604
กู	-2605
ach	-2606
ool	-2607
vis	-2608
ื้น	-2609
ence	-2610
มัติ	-2611
เว็บบ	-2612
ซับไทย	-2613
ตัวแทน	-2614
รู้จัก	-2615
เยาวชน	-2616
ทรอนิกส์	-2617
เกิดความ	-2618
<_>2018<_>	-2619
ec	-2620
lic	-2621
ory	-2622
คว้า	-2623
จิตร	-2624
วิศว	-2625
Online	-2626
ผู้เล่น	-2627
ระยะเวลา	-2628
Web	-2629
กาญ	-2630
ขัด	-2631
คัน	-2632
หมู	-2633
นานา	-2634
อร่อย	-2635
โนมัติ	-2636
ตั้งค่า	-2637
แห่งประเทศไทย	-2638
อิเล็กทรอนิกส์	-2639
su	-2640
มู	-2641
ber	-2642
view	-2643
มูลนิธิ	-2644
และพัฒนา	-2645
ทั่วประเทศ	-2646
-4	-2647
RE	-2648
ดาน	-2649
โภค	-2650
มหาส	-2651
เลิศ	-2652
ก็คือ	-2653
ณุโลก	-2654
มหาชน	-2655
การสอน	-2656
ธรรมราช	-2657
การพัฒนา	-2658
พิษณุโลก	-2659
แจก	-2660
ผลบอล	-2661
เทียม	-2662
โพสต์	-2663
บังคับ	-2664
เส้นทาง	-2665
TV	-2666
บก	-2667
พืช	-2668
เสร	-2669
พิจาร	-2670
Center	-2671
กระบวน	-2672
การเงิน	-2673
ปทุมธานี	-2674
อัตโนมัติ	-2675
co	-2676
ha	-2677
ld	-2678
ven	-2679
สิต	-2680
ไร้	-2681
เยอะ	-2682
เลือด	-2683
สัมผัส	-2684
การผลิต	-2685
<_>15<_>	-2686
อุดรธานี	-2687
เพชรบุรี	-2688
แลกเปลี่ยน	-2689
bo	-2690
รัง	-2691
โฟน	-2692
มาร์	-2693
เข้ม	-2694
หน้าจอ	-2695
ของขวัญ	-2696
ทางด้าน	-2697
พาณิชย์	-2698
ร่วมกัน	-2699
รับผิดชอบ	-2700
เชี่ยวชาญ	-2701
08	-2702
นก	-2703
คลัง	-2704
คอร์	-2705
ื่อย	-2706
กว้าง	-2707
กับเรา	-2708
ประทาน	-2709
หลายคน	-2710
การตลาด	-2711
ใช้จ่าย	-2712
สิ่งแวดล้อม	-2713
-5	-2714
หอ	-2715
โก้	-2716
with	-2717
ฤดูก	-2718
กลิ่น	-2719
มนตรี	-2720
เหล่า	-2721
เปิดเผย	-2722
นวัตกรรม	-2723
สาธารณสุข	-2724
ในการใช้งาน	-2725
นครศรีธรรมราช	-2726
EP	-2727
io	-2728
Net	-2729
You	-2730
กรี	-2731
คาย	-2732
พนม	-2733
พวง	-2734
นครปฐม	-2735
te	-2736
พะเยา	-2737
ฤดูกาล	-2738
ซีรี่ย์	-2739
ทีมชาติ	-2740
รองเท้า	-2741
ความปลอดภัย	-2742
Ser	-2743
พัง	-2744
ผู้น	-2745
จะไม่	-2746
ยุโรป	-2747
เสร็จ	-2748
สังเกต	-2749
ขั้นตอน	-2750
พลังงาน	-2751
<_>50<_>	-2752
พฤติกรรม	-2753
ส่วนบุคคล	-2754
ความสําเร็จ	-2755
งา	-2756
ult	-2757
ลุง	-2758
site	-2759
อ่าง	-2760
Intern	-2761
สุพรรณ	-2762
เกส	-2763
Book	-2764
กาแฟ	-2765
)<_><	-2766
เสื่อ	-2767
จันทร์	-2768
รายได้	-2769
สมบูรณ์	-2770
เพื่อนๆ	-2771
ในแต่ละ	-2772
ความสามารถ	-2773
Au	-2774
หู	-2775
ไง	-2776
ซ่า	-2777
ทิศ	-2778
ฝั่ง	-2779
บร้อย	-2780
เดอร์	-2781
เนอร์	-2782
วีดีโอ	-2783
ที่อยู่	-2784
ปฏิบัติงาน	-2785
เพื่อเพิ่ม	-2786
ปะ	-2787
แกร	-2788
ปกครอง	-2789
ประดับ	-2790
นิเจอร์	-2791
<_>11<_>	-2792
เรียบร้อย	-2793
กําแพงเพชร	-2794
aw	-2795
Ltd	-2796
Sam	-2797
เบา	-2798
คลุม	-2799
มิตร	-2800
เด็จ	-2801
เขียว	-2802
เนียม	-2803
ถ่ายทอด	-2804
ภาษาไทย	-2805
แต่งงาน	-2806
ขอขอบคุณ	-2807
เสียชีวิต	-2808
ทรู	-2809
มัก	-2810
*<_>	-2811
ประจ	-2812
เอ็ม	-2813
<_>17	-2814
คอนโด	-2815
โปรตุ	-2816
Android	-2817
ด้วยความ	-2818
อาหารเสริม	-2819
เฟอร์นิเจอร์	-2820
,5	-2821
.6	-2822
44	-2823
ดูด	-2824
ร้าย	-2825
ออกไป	-2826
เช่นกัน	-2827
นครสวรรค์	-2828
.5	-2829
ก็มี	-2830
ยากร	-2831
่มือ	-2832
Power	-2833
ยายาม	-2834
หาริม	-2835
เยือน	-2836
สมเด็จ	-2837
โดยวิธี	-2838
ให้เช่า	-2839
af	-2840
คริ	-2841
แถม	-2842
<_>==	-2843
obile	-2844
ทักษะ	-2845
ารคาม	-2846
ในวัน	-2847
000<_>	-2848
ยกเว้น	-2849
หมู่บ้าน	-2850
โปรตุเกส	-2851
ในประเทศ	-2852
ที่สามารถ	-2853
มหาสารคาม	-2854
ค่าใช้จ่าย	-2855
หาริมทรัพย์	-2856
-8	-2857
30	-2858
sc	-2859
vel	-2860
คอย	-2861
ข้าม	-2862
ทิ้ง	-2863
บ่อย	-2864
กระทบ	-2865
กาญจน	-2866
พรรษา	-2867
หน่อย	-2868
ที่ถูก	-2869
ที่ท่าน	-2870
ให้เป็น	-2871
หาด	-2872
พันธ	-2873
วิ่ง	-2874
คอร์ด	-2875
บรรจุ	-2876
โทรสาร	-2877
ชัยภูมิ	-2878
ได้ง่าย	-2879
ไม่เกิน	-2880
อินเทอร์	-2881
ประกอบด้วย	-2882
อสังหาริมทรัพย์	-2883
-<	-2884
19	-2885
45	-2886
de	-2887
ml	-2888
ina	-2889
log	-2890
web	-2891
วาส	-2892
สาระ	-2893
ิตี้	-2894
ทําไม	-2895
ต่อการ	-2896
มนุษย์	-2897
ไทยรัฐ	-2898
opyright	-2899
สุราษฎร์	-2900
อินเตอร์	-2901
กรุณาแจ้ง	-2902
การประชุม	-2903
สร้างความ	-2904
สุพรรณบุรี	-2905
เพื่อพัฒนา	-2906
ึด	-2907
แฮ	-2908
der	-2909
res	-2910
ทิต	-2911
าคต	-2912
แอป	-2913
your	-2914
เทรา	-2915
หางาน	-2916
โขทัย	-2917
โดยสาร	-2918
▁บริษัท	-2919
ด้านล่าง	-2920
เฉลิมพระ	-2921
มากที่สุด	-2922
เขตพื้นที่	-2923
ในประเทศไทย	-2924
ตริ	-2925
ทิน	-2926
ธยม	-2927
ลาน	-2928
ือบ	-2929
บําร	-2930
หลอก	-2931
อาทิ	-2932
เคมี	-2933
.5<_>	-2934
English	-2935
.0	-2936
SP	-2937
๊ป	-2938
แกน	-2939
ป่วย	-2940
ว่าง	-2941
อร์ต	-2942
ปัญญา	-2943
มาให้	-2944
บํารุง	-2945
พยายาม	-2946
ได้ว่า	-2947
<_>.<_>	-2948
ที่ต้อง	-2949
สุโขทัย	-2950
อย่างเป็น	-2951
สุราษฎร์ธานี	-2952
ปืน	-2953
โลห	-2954
ค่อย	-2955
ตรัง	-2956
ปุ่ม	-2957
คล้าย	-2958
ขณะนี้	-2959
ของเขา	-2960
คู่มือ	-2961
สินธุ์	-2962
<_>|<_>	-2963
กาญจนบุรี	-2964
ทู	-2965
ูง	-2966
บรม	-2967
ลวง	-2968
อนาคต	-2969
นครพนม	-2970
แข็งแรง	-2971
พระราชบัญญัติ	-2972
Ac	-2973
คณ	-2974
256	-2975
Man	-2976
ick	-2977
iss	-2978
yst	-2979
ซอฟ	-2980
ารี	-2981
Line	-2982
ซ้ํา	-2983
ฉะเชิง	-2984
สมาร์ท	-2985
แนวทาง	-2986
พิจารณา	-2987
และเป็น	-2988
อินเทอร์เน็ต	-2989
ฝี	-2990
ภิ	-2991
ศิ	-2992
oft	-2993
อล์	-2994
เวิ	-2995
โทษ	-2996
สมุด	-2997
เมอร์	-2998
กํากับ	-2999
ผู้นํา	-3000
ไม่รู้	-3001
เชสเตอร์	-3002
พระนครศรี	-3003
สร้างสรรค์	-3004
พระนครศรีอยุธยา	-3005
.2	-3006
ธน	-3007
ัช	-3008
old	-3009
งวด	-3010
ท่อ	-3011
น่าน	-3012
ซิตี้	-3013
ปรากฏ	-3014
เหตุผล	-3015
ร่วมงาน	-3016
จันทบุรี	-3017
แสดงความ	-3018
กาฬสินธุ์	-3019
ฉะเชิงเทรา	-3020
its	-3021
จอด	-3022
ต้า	-3023
ผัก	-3024
ยี่	-3025
กรอบ	-3026
ภาวะ	-3027
ไหล่	-3028
<_>22	-3029
พิจิตร	-3030
อนิเมะ	-3031
สุรินทร์	-3032
เว็บบอร์ด	-3033
แมนเชสเตอร์	-3034
เหมาะสําหรับ	-3035
ไข่	-3036
กิโล	-3037
พนัน	-3038
esign	-3039
ตริย์	-3040
ประถม	-3041
ราชภั	-3042
ส่งผล	-3043
เรือน	-3044
การทํา	-3045
เข้ารับ	-3046
และอุปกรณ์	-3047
no	-3048
ode	-3049
อธิ	-3050
load	-3051
บูชา	-3052
ition	-3053
ดูบอล	-3054
ทิตย์	-3055
ลําดับ	-3056
และผู้	-3057
จากนั้น	-3058
ล้านบาท	-3059
ษัตริย์	-3060
ห้องพัก	-3061
เหตุการณ์	-3062
da	-3063
do	-3064
pe	-3065
นม	-3066
ฟฟ	-3067
ิบ	-3068
ann	-3069
เทน	-3070
มหาก	-3071
คนไทย	-3072
เลื่อน	-3073
เสื่อม	-3074
ลงประกาศ	-3075
เรื่องนี้	-3076
การเรียนรู้	-3077
ทําความสะอาด	-3078
-9	-3079
ได	-3080
-25	-3081
INE	-3082
ลาม	-3083
<_>--	-3084
ประมวล	-3085
ข้อกําหนด	-3086
ที่สําคัญ	-3087
!!	-3088
NE	-3089
ฯล	-3090
ทนา	-3091
สี่	-3092
ึ้ง	-3093
โชค	-3094
โดด	-3095
ักษ์	-3096
ธรรมะ	-3097
ต่อสู้	-3098
โดยการ	-3099
อาทิตย์	-3100
เพชรบูรณ์	-3101
ถ์	-3102
ove	-3103
ดึง	-3104
ปัน	-3105
Trip	-3106
ห่าง	-3107
แต้ม	-3108
ขนส่ง	-3109
ระลึก	-3110
ดังนี้	-3111
บรรยาย	-3112
เปรียบ	-3113
สาธารณะ	-3114
อ้างอิง	-3115
ทรัพยากร	-3116
จดทะเบียน	-3117
MA	-3118
ดาษ	-3119
ฯลฯ	-3120
โพส	-3121
สยาม	-3122
พบกับ	-3123
พากย์	-3124
มอเตอร์	-3125
ผู้จัดการ	-3126
รับประกัน	-3127
และสามารถ	-3128
88	-3129
cl	-3130
ธง	-3131
Cre	-3132
สเต	-3133
ther	-3134
คีรี	-3135
-0<_>	-3136
นี้จะ	-3137
ระบาด	-3138
ไปถึง	-3139
ผู้ผลิต	-3140
ผู้อื่น	-3141
หนองคาย	-3142
นานาชาติ	-3143
ชําระเงิน	-3144
ที่จําเป็น	-3145
ที่ดีที่สุด	-3146
สัตว์เลี้ยง	-3147
11	-3148
ash	-3149
int	-3150
ฤดู	-3151
ห้อ	-3152
อาร	-3153
เพศ	-3154
แพล	-3155
็อป	-3156
Bang	-3157
ount	-3158
word	-3159
ถวาย	-3160
ลุ้น	-3161
หล่อ	-3162
ระยอง	-3163
ราชภัฏ	-3164
ของเล่น	-3165
พระมหาก	-3166
จํานวนมาก	-3167
<_>2017<_>	-3168
เป็นประธาน	-3169
เครื่องหมาย	-3170
ME	-3171
ศา	-3172
ors	-3173
ree	-3174
คอล	-3175
ดีๆ	-3176
เลน	-3177
โค้	-3178
form	-3179
ตราด	-3180
แห้ง	-3181
อุทัย	-3182
Commun	-3183
<_>=<_>	-3184
การเรียน	-3185
ก็สามารถ	-3186
สมเด็จพระ	-3187
เครื่องดื่ม	-3188
เทศบาลตําบล	-3189
22	-3190
OT	-3191
ถา	-3192
ath	-3193
บุก	-3194
สั้น	-3195
โสธร	-3196
กระบี่	-3197
คืออะไร	-3198
ขนาดใหญ่	-3199
คุณสมบัติ	-3200
เกษตรศาสตร์	-3201
ทม	-3202
ธา	-3203
อต	-3204
้ย	-3205
Pol	-3206
out	-3207
พัท	-3208
lect	-3209
เมล์	-3210
สุภาพ	-3211
ervice	-3212
เข้าชม	-3213
ทีเดียว	-3214
เรียกว่า	-3215
อป	-3216
ปั๊	-3217
ปาง	-3218
ศัย	-3219
สติ	-3220
เพจ	-3221
คําน	-3222
ตราย	-3223
อุ่น	-3224
าราย	-3225
เดี่ยว	-3226
เหลือง	-3227
ให้คํา	-3228
นักแสดง	-3229
ยอดนิยม	-3230
พร้อมด้วย	-3231
Sm	-3232
์ม	-3233
ank	-3234
พลิ	-3235
port	-3236
sung	-3237
work	-3238
ดําร	-3239
อภัย	-3240
เดอะ	-3241
เพลิง	-3242
<_>...	-3243
มาร่วม	-3244
มาแล้ว	-3245
<_>--<_>	-3246
><_>-<_>	-3247
ความร้อน	-3248
มืออาชีพ	-3249
เหล่านี้	-3250
โทรทัศน์	-3251
เคลื่อนไหว	-3252
50	-3253
กั	-3254
สก	-3255
Off	-3256
ทาย	-3257
พริ	-3258
ข้าร	-3259
เวที	-3260
<_>30	-3261
Apple	-3262
วิจาร	-3263
มีส่วน	-3264
โดยตรง	-3265
ational	-3266
เลขเด็ด	-3267
โอนเงิน	-3268
Copyright	-3269
.,	-3270
วม	-3271
ade	-3272
กุล	-3273
ตาล	-3274
ถอน	-3275
โซน	-3276
ical	-3277
ript	-3278
มากๆ	-3279
ุนไพร	-3280
จัดงาน	-3281
บริโภค	-3282
ประจวบ	-3283
ผู้ชนะ	-3284
ต้อนรับ	-3285
ถ่ายภาพ	-3286
นครนายก	-3287
คุ้มครอง	-3288
PS	-3289
ck	-3290
me	-3291
ผี	-3292
รน	-3293
ย่อ	-3294
คลับ	-3295
บาร์	-3296
เกรด	-3297
มัธยม	-3298
น่ารัก	-3299
ประทับ	-3300
พัทลุง	-3301
ด้วยกัน	-3302
ทั้งสอง	-3303
38	-3304
CH	-3305
IG	-3306
It	-3307
Wh	-3308
ญาณ	-3309
Tech	-3310
บั้ม	-3311
อุตร	-3312
พบว่า	-3313
วิทยุ	-3314
เรียบ	-3315
เตอรี่	-3316
ฮ่องสอน	-3317
ทั้งสิ้น	-3318
ในการใช้	-3319
อุทัยธานี	-3320
เบราเซอร์	-3321
พระเครื่อง	-3322
แม่ฮ่องสอน	-3323
ที่ไม่เหมาะสม	-3324
Br	-3325
HT	-3326
ตถ	-3327
man	-3328
ราณ	-3329
'<_>	-3330
คราว	-3331
ไลท์	-3332
ดิตถ์	-3333
รักษ์	-3334
โบราณ	-3335
ใหม่ๆ	-3336
กระดาน	-3337
ข้าราชการ	-3338
อุตรดิตถ์	-3339
ที่น่าสนใจ	-3340
-7	-3341
14	-3342
ดุ	-3343
๋ย	-3344
amp	-3345
aph	-3346
row	-3347
งค์	-3348
จอม	-3349
มอน	-3350
ือก	-3351
atch	-3352
ทุกๆ	-3353
ยภาพ	-3354
ของฉัน	-3355
ยี่ห้อ	-3356
โดยไม่	-3357
จัดจ้าง	-3358
ทุกอย่าง	-3359
อาหารและ	-3360
เพิ่มขึ้น	-3361
ทะเบียนสวย	-3362
ск	-3363
หาส	-3364
เก๋	-3365
เเล	-3366
olog	-3367
orld	-3368
เก้า	-3369
เนีย	-3370
รับชม	-3371
เคียง	-3372
ผ่านทาง	-3373
อยู่กับ	-3374
อัลบั้ม	-3375
เชื่อว่า	-3376
วิทยบริการ	-3377
จําเป็นต้อง	-3378
oy	-3379
ich	-3380
บึง	-3381
ลวด	-3382
สงข	-3383
Read	-3384
ตานี	-3385
รีส์	-3386
สําร	-3387
ครึ่ง	-3388
ทดลอง	-3389
เซียน	-3390
!!!<_>	-3391
กระดาษ	-3392
ชัดเจน	-3393
ปราการ	-3394
ทุกชนิด	-3395
หนองบัว	-3396
อ่างทอง	-3397
กําลังใช้	-3398
sl	-3399
ผน	-3400
ฟ์	-3401
ake	-3402
วอล	-3403
วาน	-3404
หนะ	-3405
หลง	-3406
ding	-3407
กรัม	-3408
ยะลา	-3409
เติบ	-3410
.1<_>	-3411
กระแส	-3412
ขันธ์	-3413
ยังไง	-3414
็กซี่	-3415
ขายของ	-3416
ปราจีน	-3417
แล้วก็	-3418
Samsung	-3419
พากย์ไทย	-3420
ที่ได้รับ	-3421
ประกอบการ	-3422
สังเกตเห็น	-3423
กรุณาแจ้งมาที่	-3424
หง	-3425
ฮา	-3426
arn	-3427
eng	-3428
use	-3429
มุก	-3430
แน่	-3431
แบต	-3432
ขอให้	-3433
ขออภัย	-3434
ซึ่งมี	-3435
<_>13<_>	-3436
<_>2019<_>	-3437
ประจําปีงบประมาณ	-3438
24	-3439
uk	-3440
ิ้	-3441
Air	-3442
air	-3443
ทยา	-3444
พัด	-3445
แบน	-3446
อาสา	-3447
เอ็น	-3448
visor	-3449
ดูดวง	-3450
หลายๆ	-3451
เสิร์	-3452
:00<_>	-3453
ของที่	-3454
เป็นคน	-3455
จักรยาน	-3456
ชื่นชอบ	-3457
ปัตตานี	-3458
พระพุทธ	-3459
วิชาชีพ	-3460
การเมือง	-3461
ความสะดวก	-3462
และบริการ	-3463
ในพื้นที่	-3464
ปราจีนบุรี	-3465
ฉีด	-3466
ชีว	-3467
แพลต	-3468
indow	-3469
แต่ก็	-3470
ซีรีส์	-3471
ปริมาณ	-3472
มั่นคง	-3473
ในราคา	-3474
สมุนไพร	-3475
แห่งนี้	-3476
แบบฟอร์ม	-3477
อีกมากมาย	-3478
เกมส์ออนไลน์	-3479
เว็บเบราเซอร์	-3480
พระมหากษัตริย์	-3481
เพิ่มเติมได้ที่	-3482
ED	-3483
PC	-3484
Ste	-3485
แอล	-3486
ฐานะ	-3487
สบู่	-3488
ห้าง	-3489
จะถูก	-3490
ปฏิทิน	-3491
เติบโต	-3492
ให้ได้	-3493
ช่องทาง	-3494
อันตราย	-3495
<_>14<_>	-3496
รุ่นใหม่	-3497
ได้มีการ	-3498
ของเว็บไซต์	-3499
ดูรายละเอียด	-3500
อท	-3501
เถ	-3502
ary	-3503
ese	-3504
ски	-3505
พูน	-3506
รีบ	-3507
สดี	-3508
เฉล	-3509
ไตร	-3510
็อต	-3511
Game	-3512
cess	-3513
ปั๊ม	-3514
ยื่น	-3515
ห้วย	-3516
็กซ์	-3517
พาหนะ	-3518
กระจาย	-3519
กองทุน	-3520
จึงอาจ	-3521
มูลค่า	-3522
ยินยอม	-3523
ให้เรา	-3524
คลิกที่	-3525
ผู้ใหญ่	-3526
ศักยภาพ	-3527
เพื่อเป็น	-3528
,<	-3529
AD	-3530
ถี	-3531
ภ์	-3532
get	-3533
พูล	-3534
มนา	-3535
มิน	-3536
ามา	-3537
ซ้าย	-3538
ว่าย	-3539
เร่ง	-3540
แต่ว	-3541
60<_>	-3542
ชุมพร	-3543
ปอนด์	-3544
วิสัย	-3545
เปล่า	-3546
ในเกม	-3547
ลําปาง	-3548
ชั้นนํา	-3549
ของตัวเอง	-3550
ประกวดราคา	-3551
เครื่องบิน	-3552
ประวัติศาสตร์	-3553
เว็บไซต์ของคุณ	-3554
Mo	-3555
Vi	-3556
We	-3557
ru	-3558
ens	-3559
orn	-3560
ทัล	-3561
นาท	-3562
สวม	-3563
แปร	-3564
Home	-3565
ject	-3566
หลุด	-3567
วัสดี	-3568
เพิ่ง	-3569
TripAd	-3570
ประสาน	-3571
ยกเลิก	-3572
สัมมนา	-3573
เทศกาล	-3574
วิศวกรรม	-3575
คีรีขันธ์	-3576
แพลตฟอร์ม	-3577
TripAdvisor	-3578
รายงานผลการ	-3579
ประจวบคีรีขันธ์	-3580
ว่าคุณกําลังใช้	-3581
31	-3582
Op	-3583
UB	-3584
ey	-3585
ble	-3586
ric	-3587
พึง	-3588
ital	-3589
ชาร์	-3590
<_>2.	-3591
ผลไม้	-3592
จดหมาย	-3593
ภายนอก	-3594
เจาะจง	-3595
ในส่วน	-3596
ownload	-3597
ในโอกาส	-3598
<_>18<_>	-3599
เยี่ยมชม	-3600
ของบริษัท	-3601
เราสนับสนุน	-3602
แสดงผลอย่าง	-3603
ที่ไม่สนับสนุน	-3604
By	-3605
GB	-3606
TS	-3607
ชะ	-3608
๊ค	-3609
kok	-3610
เลส	-3611
this	-3612
หัตถ	-3613
รถตู้	-3614
สงสัย	-3615
สิงห์	-3616
อีสาน	-3617
online	-3618
สวัสดี	-3619
ข้อตกลง	-3620
ชนะเลิศ	-3621
ภาษาญี่ปุ่น	-3622
เฉพาะเจาะจง	-3623
66	-3624
78	-3625
ศ์	-3626
กี่	-3627
หนา	-3628
Comp	-3629
ขวาง	-3630
ปรัช	-3631
พังงา	-3632
ไปได้	-3633
การบิน	-3634
ชัยนาท	-3635
ทองคํา	-3636
บอกว่า	-3637
ไม่เคย	-3638
การลงทุน	-3639
วิสัยทัศน์	-3640
เก็บข้อมูล	-3641
EL	-3642
ลี	-3643
Sup	-3644
ขวด	-3645
ช้า	-3646
ตระ	-3647
ิ้ล	-3648
เสา	-3649
time	-3650
ว่าร	-3651
อุดม	-3652
เสือ	-3653
20<_>	-3654
อาจมี	-3655
กําจัด	-3656
ผู้ชาย	-3657
สํารวจ	-3658
▁เมื่อ	-3659
ที่นั่ง	-3660
ลงโฆษณา	-3661
▁ประกาศ	-3662
ประทับใจ	-3663
หัตถกรรม	-3664
เวอร์ชั่น	-3665
<_>2020<_>	-3666
ขับเคลื่อน	-3667
จัดกิจกรรม	-3668
อํานาจเจริญ	-3669
20	-3670
My	-3671
PD	-3672
มุ	-3673
new	-3674
กทม	-3675
กรา	-3676
สุน	-3677
ตาร์	-3678
ลามก	-3679
แป้ง	-3680
.<_><	-3681
ivers	-3682
้อยู่	-3683
ก็ต้อง	-3684
ข้อเสนอ	-3685
ขนาดเล็ก	-3686
ศึกษาราย	-3687
ให้เลือก	-3688
ออกกําลัง	-3689
<_>===><_>	-3690
แตกต่างกัน	-3691
ทางการศึกษา	-3692
นโยบายคุกกี้	-3693
กง	-3694
ปู	-3695
แย	-3696
ata	-3697
ล่ะ	-3698
Port	-3699
ต้าน	-3700
เจอก	-3701
เล็ต	-3702
เล่ม	-3703
้นี้	-3704
erved	-3705
จะใช้	-3706
ประมง	-3707
ไวรัส	-3708
ขอเชิญ	-3709
ถือว่า	-3710
ปรัชญา	-3711
ส่วนลด	-3712
Bangkok	-3713
มาตรการ	-3714
หลอกลวง	-3715
ส่วนหนึ่ง	-3716
ในจังหวัด	-3717
หนังสือพิมพ์	-3718
เว็บไซต์ของเรา	-3719
ทช	-3720
วุ	-3721
Sci	-3722
จ้า	-3723
ฉาย	-3724
ปัก	-3725
ปูน	-3726
ยึด	-3727
หรู	-3728
LINE	-3729
ตื่น	-3730
ฝุ่น	-3731
ลิ้ง	-3732
ystem	-3733
คลิ๊ก	-3734
อาศัย	-3735
ในระบบ	-3736
ในเวลา	-3737
ให้แก่	-3738
ก่อตั้ง	-3739
ชื่อดัง	-3740
แต่งตัว	-3741
โดดเด่น	-3742
ความเร็ว	-3743
เสนอราคา	-3744
ในเรื่อง	-3745
กระบวนการ	-3746
ทรัพย์สิน	-3747
ความร่วมมือ	-3748
09	-3749
Be	-3750
ข์	-3751
จาค	-3752
ติน	-3753
ลือ	-3754
ฉลอง	-3755
ย่อย	-3756
โลหะ	-3757
ผู้มี	-3758
ฟิล์ม	-3759
มุกดา	-3760
ยโสธร	-3761
ากลาง	-3762
เฉียง	-3763
อะไหล่	-3764
<_>+<_>	-3765
คุณธรรม	-3766
จะสามารถ	-3767
ซื้อจัดจ้าง	-3768
พฤติกรรมการ	-3769
สมุทรปราการ	-3770
เครื่องจักร	-3771
สหรัฐอเมริกา	-3772
เกี่ยวกับการ	-3773
▁เว็บไซต์นี้	-3774
ศึกษารายละเอียด	-3775
เฉลิมพระเกียรติ	-3776
Up	-3777
สพ	-3778
ไพ	-3779
๒๕	-3780
LED	-3781
ware	-3782
าจาร	-3783
แปลก	-3784
แหวน	-3785
ราคาส	-3786
โจทย์	-3787
ทีเด็ด	-3788
พวกเรา	-3789
วางแผน	-3790
สาเหตุ	-3791
อุบัติ	-3792
แรงงาน	-3793
ถือเป็น	-3794
<_>16<_>	-3795
จะทําให้	-3796
จะได้รับ	-3797
ตัวอักษร	-3798
ยานพาหนะ	-3799
ว่ายน้ํา	-3800
ห้องน้ํา	-3801
Community	-3802
ศึกษาธิการ	-3803
▁เราสังเกตเห็น	-3804
UN	-3805
ฟิ	-3806
าญ	-3807
mer	-3808
กู้	-3809
ดอล	-3810
ปวด	-3811
วาด	-3812
หมอ	-3813
อัป	-3814
ไร่	-3815
คลาย	-3816
วรรณ	-3817
หมึก	-3818
เด็น	-3819
<_>21	-3820
กรุ๊ป	-3821
ธิวาส	-3822
สนทนา	-3823
ศูนย์ฯ	-3824
อนาจาร	-3825
ในระดับ	-3826
ของคุณได้	-3827
อย่างไรก็ตาม	-3828
ใช้งานคุกกี้	-3829
EC	-3830
Me	-3831
Or	-3832
mp	-3833
my	-3834
ณห	-3835
any	-3836
ทริ	-3837
ราก	-3838
วิช	-3839
เกร	-3840
โต้	-3841
more	-3842
ลําภู	-3843
การและ	-3844
บริจาค	-3845
พูดคุย	-3846
และไม่	-3847
ภูมิภาค	-3848
อีกทั้ง	-3849
ที่ทําให้	-3850
สําเร็จรูป	-3851
หนองบัวลําภู	-3852
wh	-3853
ซา	-3854
อส	-3855
Dis	-3856
itt	-3857
จิน	-3858
ทรา	-3859
หนี	-3860
ห้า	-3861
ออส	-3862
<_>@	-3863
กลัว	-3864
ช้าง	-3865
บุ๊ก	-3866
ลาร์	-3867
สากล	-3868
แถลง	-3869
<_>24	-3870
ยกรรม	-3871
สหกิจ	-3872
เวิร์	-3873
ookies	-3874
ที่ทํา	-3875
ปีใหม่	-3876
ทันสมัย	-3877
นําเข้า	-3878
ได้แล้ว	-3879
ภาคเหนือ	-3880
อีกหนึ่ง	-3881
พรีเมี่ยม	-3882
เชื่อมต่อ	-3883
ในปัจจุบัน	-3884
Dr	-3885
He	-3886
ถู	-3887
Mus	-3888
นรา	-3889
มิติ	-3890
วนาน	-3891
ศาสน	-3892
สลาก	-3893
เขาก	-3894
เข็ม	-3895
เพาะ	-3896
ไลฟ์	-3897
พร้าว	-3898
สปอร์ต	-3899
อธิการ	-3900
ั่งยืน	-3901
แม่และ	-3902
แบ่งปัน	-3903
สมัครงาน	-3904
ในรูปแบบ	-3905
ที่กําลัง	-3906
พร้อมทั้ง	-3907
ร้องเรียน	-3908
เบื้องต้น	-3909
<_>2563<_>	-3910
การเดินทาง	-3911
ภาษาฝรั่งเศส	-3912
หากท่านพบเห็น	-3913
อย่างเป็นทางการ	-3914
BO	-3915
ES	-3916
Qu	-3917
ศล	-3918
สภ	-3919
าด	-3920
ket	-3921
ครุ	-3922
ฆ่า	-3923
นิว	-3924
บาน	-3925
มาด	-3926
มาส	-3927
แก๊	-3928
ason	-3929
ทธิ์	-3930
แม่น	-3931
count	-3932
ทุกข์	-3933
คนอื่น	-3934
คิดว่า	-3935
ัสเซีย	-3936
กับความ	-3937
บางส่วน	-3938
ประเด็น	-3939
ลิเวอร์	-3940
หัวหน้า	-3941
นราธิวาส	-3942
เชื่อถือ	-3943
ประจําวัน	-3944
สมาร์ทโฟน	-3945
เนื้อเพลง	-3946
<_>2016<_>	-3947
ความรู้สึก	-3948
สหกิจศึกษา	-3949
<_>-<_>=><_>	-3950
ตามพระราชบัญญัติ	-3951
60	-3952
Fl	-3953
GM	-3954
ศพ	-3955
AND	-3956
Pri	-3957
enc	-3958
not	-3959
วาร	-3960
สูญ	-3961
สแต	-3962
cont	-3963
icro	-3964
ค่อน	-3965
ทําร	-3966
ล่วง	-3967
<_>1,	-3968
<_>1-	-3969
lease	-3970
กระจก	-3971
ง่ายๆ	-3972
ฝีมือ	-3973
ระบาย	-3974
วัสดิ	-3975
เกณฑ์	-3976
เสาร์	-3977
โปร่ง	-3978
ได้มี	-3979
มาเป็น	-3980
สัมภาษ	-3981
<_>0<_>	-3982
การแสดง	-3983
ทางร้าน	-3984
ผลกระทบ	-3985
มุกดาหาร	-3986
ประกันภัย	-3987
ประถมศึกษา	-3988
ลิเวอร์พูล	-3989
เครื่องใช้	-3990
เสื่อมเสีย	-3991
การท่องเที่ยว	-3992
รร	-3993
let	-3994
oto	-3995
จัย	-3996
บัด	-3997
สิว	-3998
หัน	-3999
โฮม	-4000
ไหร	-4001
<_>'	-4002
Play	-4003
raph	-4004
ตําน	-4005
อุณห	-4006
ของเธอ	-4007
ตามที่	-4008
เลยว่า	-4009
แบบนี้	-4010
พันธกิจ	-4011
รัสเซีย	-4012
แผ่นดิน	-4013
ในชีวิต	-4014
การเผยแพร่	-4015
ภาษาเยอรมัน	-4016
AP	-4017
ผจ	-4018
ING	-4019
Sub	-4020
ike	-4021
ฉาก	-4022
ซัก	-4023
ภาร	-4024
land	-4025
วงศ์	-4026
หนาว	-4027
เม็ด	-4028
40<_>	-4029
ology	-4030
การ์ด	-4031
เกือบ	-4032
ไขมัน	-4033
indows	-4034
ของโลก	-4035
บึงกาฬ	-4036
สุดยอด	-4037
ส่งออก	-4038
เรื่อย	-4039
ให้การ	-4040
ให้ออก	-4041
ความสุข	-4042
ผ่านการ	-4043
ยิ่งขึ้น	-4044
สัมภาษณ์	-4045
อธิการบดี	-4046
เลือกตั้ง	-4047
แบตเตอรี่	-4048
ป้องกันการ	-4049
เลยทีเดียว	-4050
ใหม่ล่าสุด	-4051
ความสัมพันธ์	-4052
ตะวันออกเฉียง	-4053
ประจําปีการศึกษา	-4054
ma	-4055
we	-4056
ลพ	-4057
ษฐ	-4058
Tra	-4059
ale	-4060
ขยะ	-4061
ชาด	-4062
ผจญ	-4063
News	-4064
This	-4065
คณิต	-4066
เดือ	-4067
ภาษาร	-4068
.30<_>	-4069
สํารอง	-4070
ใช้ได้	-4071
บาดเจ็บ	-4072
เหมือนกัน	-4073
ภาษาอิตาลี	-4074
ของที่ระลึก	-4075
ออกกําลังกาย	-4076
As	-4077
ยิ	-4078
ศุ	-4079
Hot	-4080
Vis	-4081
มัง	-4082
รอด	-4083
สกล	-4084
แดด	-4085
<_>»	-4086
ated	-4087
ater	-4088
ทราย	-4089
สะพาน	-4090
สีแดง	-4091
ให้มี	-4092
ดีกว่า	-4093
ตํานาน	-4094
ปัจจัย	-4095
ภาคใต้	-4096
สวัสดิ	-4097
คําสั่ง	-4098
ที่เกิด	-4099
เป็นตัว	-4100
ที่เกิดขึ้น	-4101
ภาษารัสเซีย	-4102
เครื่องประดับ	-4103
ประสิทธิภาพและ	-4104
18	-4105
65	-4106
fl	-4107
าบ	-4108
้ก	-4109
.00	-4110
000	-4111
Bus	-4112
mot	-4113
off	-4114
ran	-4115
ซัม	-4116
ลอย	-4117
ส้ม	-4118
หาน	-4119
ator	-4120
หรีด	-4121
อร์ท	-4122
ิร์น	-4123
ปกป้อง	-4124
ว่าการ	-4125
และยัง	-4126
ของสะสม	-4127
ส่วนใหญ่	-4128
กําหนดการ	-4129
อนุญาตให้	-4130
อุบัติเหตุ	-4131
อย่างต่อเนื่อง	-4132
ข้อมูลส่วนบุคคล	-4133
MO	-4134
ลู	-4135
เฝ	-4136
SMS	-4137
ave	-4138
ous	-4139
กลม	-4140
ยืด	-4141
ลัย	-4142
เชล	-4143
True	-4144
part	-4145
play	-4146
soft	-4147
กรัฐ	-4148
ปั่น	-4149
ล็อก	-4150
แพทย	-4151
Techn	-4152
iness	-4153
นิยาย	-4154
สงขลา	-4155
อยู่อ	-4156
▁•<_>	-4157
ลพบุรี	-4158
สัญญาณ	-4159
ดอลลาร์	-4160
รถไฟฟ้า	-4161
การบัญชี	-4162
ติดเชื้อ	-4163
แต่งหน้า	-4164
เพิ่มความ	-4165
โหลดเกมส์	-4166
<_>2022<_>	-4167
ข้อมูลเพิ่มเติม	-4168
คุกกี้ที่จําเป็น	-4169
.3	-4170
ps	-4171
ซึ	-4172
ลิป	-4173
วิท	-4174
ามี	-4175
เสพ	-4176
แอพ	-4177
โทน	-4178
Amar	-4179
ทยาน	-4180
เค้า	-4181
World	-4182
กลั่น	-4183
ศิลป์	-4184
แกร่ง	-4185
Mobile	-4186
ก็เป็น	-4187
ธรรมดา	-4188
ผู้สูง	-4189
ไฮไลท์	-4190
ค่อนข้าง	-4191
ประมวลผล	-4192
หลังจากที่	-4193
ในครั้งนี้	-4194
หรือการกระทํา	-4195
42	-4196
PG	-4197
ดั	-4198
ทอ	-4199
Jav	-4200
One	-4201
ari	-4202
und	-4203
บาส	-4204
มณ์	-4205
เหย	-4206
กูรู	-4207
นเลส	-4208
ลงใน	-4209
หนี้	-4210
แข้ง	-4211
70<_>	-4212
จิทัล	-4213
ทาวน์	-4214
สว่าง	-4215
เคล็ด	-4216
สกลนคร	-4217
เกมนี้	-4218
่อย่าง	-4219
<_>*<_>	-4220
ผู้ช่วย	-4221
ระเบียบ	-4222
การสร้าง	-4223
เหมาะกับ	-4224
ที่เหมาะสม	-4225
สถาบันชาติ	-4226
ประกันคุณภาพ	-4227
OK	-4228
จฉ	-4229
ery	-4230
iOS	-4231
ift	-4232
igh	-4233
บ่อ	-4234
รัด	-4235
ลาว	-4236
ited	-4237
rome	-4238
กรอก	-4239
กล้า	-4240
วิถี	-4241
เเละ	-4242
<_>08	-4243
Micro	-4244
ของคน	-4245
ต่อมา	-4246
ปีนี้	-4247
สีขาว	-4248
้านี้	-4249
Amarin	-4250
กระดับ	-4251
ของไทย	-4252
ตั้งใจ	-4253
อํานวย	-4254
Windows	-4255
ทั่วไทย	-4256
ผิดพลาด	-4257
หน้าหลัก	-4258
เพียงแค่	-4259
เลือกการ	-4260
ผู้ใช้งาน	-4261
<_>2559<_>	-4262
บุคลากรของ	-4263
มัธยมศึกษา	-4264
ที่ไม่สุภาพ	-4265
ที่อาจก่อให้	-4266
OP	-4267
dr	-4268
ไช	-4269
Gal	-4270
ith	-4271
หัก	-4272
book	-4273
gram	-4274
ผนัง	-4275
สุดๆ	-4276
ไหร่	-4277
,<_>1	-4278
.0<_>	-4279
<_>23	-4280
ในตัว	-4281
Series	-4282
สหกรณ์	-4283
ให้นัก	-4284
ดิจิทัล	-4285
ภาพลามก	-4286
ของแต่ละ	-4287
ใช้ในการ	-4288
ถ่ายทอดสด	-4289
ภายในบ้าน	-4290
คลิกที่นี่	-4291
พฤติกรรมใด	-4292
การใช้ข้อความ	-4293
ซึ่งอาจก่อให้	-4294
เสื่อมเสียแก่	-4295
หรือพฤติกรรมใด	-4296
หรือการกระทําใด	-4297
BS	-4298
ขบ	-4299
Soc	-4300
ron	-4301
ขุน	-4302
ช้อ	-4303
นวด	-4304
ยํา	-4305
แอบ	-4306
๊อก	-4307
ateg	-4308
read	-4309
กระช	-4310
คาร์	-4311
จริต	-4312
จะมา	-4313
อนุม	-4314
ากับ	-4315
ประการ	-4316
พระราม	-4317
ในความ	-4318
Univers	-4319
จัดตั้ง	-4320
ผู้ดูแล	-4321
<_>25<_>	-4322
เราสามารถ	-4323
แม่และเด็ก	-4324
ภาษาโปรตุเกส	-4325
อุปกรณ์สํานักงาน	-4326
MP	-4327
๊ด	-4328
Day	-4329
led	-4330
ดอน	-4331
เดน	-4332
<_>.	-4333
Date	-4334
Part	-4335
ouse	-4336
กุศล	-4337
ธาตุ	-4338
inter	-4339
<_>102	-4340
กระดูก	-4341
ของทีม	-4342
ข้อสอบ	-4343
ที่ไหน	-4344
ผจญภัย	-4345
มวยไทย	-4346
อุทยาน	-4347
แม้ว่า	-4348
และได้	-4349
ได้ทุก	-4350
ไอเดีย	-4351
อินเดีย	-4352
ระบาดของ	-4353
เพื่อความ	-4354
เพื่อสุขภาพ	-4355
-0	-4356
21	-4357
49	-4358
IV	-4359
UR	-4360
ah	-4361
จา	-4362
ชู	-4363
บิ	-4364
ION	-4365
ทีฟ	-4366
บํา	-4367
สดุ	-4368
reen	-4369
ช้อป	-4370
ว่าน	-4371
ี้ยน	-4372
<_>50	-4373
Colle	-4374
Right	-4375
กระบะ	-4376
ครีเอ	-4377
จะทํา	-4378
สุขุม	-4379
เกล้า	-4380
คือการ	-4381
เอาชนะ	-4382
ครอบคลุม	-4383
ภาษาสเปน	-4384
กรัฐมนตรี	-4385
คณิตศาสตร์	-4386
และบุคลากร	-4387
การให้บริการ	-4388
ผู้เชี่ยวชาญ	-4389
MV	-4390
ix	-4391
Gro	-4392
Tit	-4393
ark	-4394
ife	-4395
ugu	-4396
กาง	-4397
ศีล	-4398
ศุก	-4399
shop	-4400
ปราบ	-4401
ปิ้ง	-4402
ยุทธ	-4403
ลงไป	-4404
สนอง	-4405
หลอด	-4406
ามัย	-4407
ใช้อ	-4408
ไซด์	-4409
admin	-4410
จิตอล	-4411
ประดิ	-4412
ผู้คน	-4413
ลิงค์	-4414
ศุกร์	-4415
ในทุก	-4416
งานนี้	-4417
แนวคิด	-4418
แผนที่	-4419
ของเก่า	-4420
พระองค์	-4421
มิเนียม	-4422
โดยเปิด	-4423
ที่ไม่มี	-4424
อนุรักษ์	-4425
ได้ทันที	-4426
เครื่องดนตรี	-4427
70	-4428
MB	-4429
PA	-4430
Ro	-4431
ฟู	-4432
Gen	-4433
Nor	-4434
eed	-4435
tra	-4436
ube	-4437
คืบ	-4438
รีส	-4439
เทร	-4440
แถว	-4441
แอน	-4442
game	-4443
ผึ้ง	-4444
ยิ้ม	-4445
ย่าน	-4446
ลุ่ม	-4447
สมอง	-4448
เลีย	-4449
.6<_>	-4450
คอร์ส	-4451
จอดรถ	-4452
สีดํา	-4453
พระบรม	-4454
รู้ว่า	-4455
ออสเตร	-4456
Powered	-4457
ชิ้นงาน	-4458
ดิจิตอล	-4459
นี้เป็น	-4460
พวงหรีด	-4461
พักผ่อน	-4462
<_>60<_>	-4463
การเกษตร	-4464
กําลังใจ	-4465
สุขุมวิท	-4466
เคล็ดลับ	-4467
แก้ปัญหา	-4468
ของประเทศ	-4469
เข้าศึกษา	-4470
อุปกรณ์สื่อสาร	-4471
>,	-4472
pt	-4473
ณร	-4474
รศ	-4475
Pre	-4476
ข้า	-4477
รย์	-4478
รี่	-4479
อี้	-4480
Auth	-4481
Inst	-4482
สวยๆ	-4483
ห่วง	-4484
เวย์	-4485
Class	-4486
Super	-4487
จารย์	-4488
เซลล์	-4489
เดือด	-4490
เวียด	-4491
คําตอบ	-4492
ทํานาย	-4493
มาก่อน	-4494
เราได้	-4495
ในฐานะ	-4496
จัดขึ้น	-4497
ยั่งยืน	-4498
รับจ้าง	-4499
ตั้งอยู่	-4500
รวมไปถึง	-4501
ปริญญาตรี	-4502
ความเป็นมา	-4503
▁หากท่านพบเห็น	-4504
CC	-4505
SS	-4506
añ	-4507
axy	-4508
fer	-4509
ทรี	-4510
ออม	-4511
ิดล	-4512
โยง	-4513
ทั่ง	-4514
ที่พ	-4515
ละเม	-4516
สรรพ	-4517
เค้ก	-4518
แท็บ	-4519
80<_>	-4520
ดูกัน	-4521
มนุษย	-4522
าระบบ	-4523
เอกชน	-4524
โลโก้	-4525
▁เป็น	-4526
witter	-4527
จึงได้	-4528
ลดราคา	-4529
รับซื้อ	-4530
เมืองไทย	-4531
แต่งตั้ง	-4532
และอื่นๆ	-4533
การออกแบบ	-4534
ความพร้อม	-4535
ดีต้อนรับ	-4536
สัญลักษณ์	-4537
ของประเทศไทย	-4538
International	-4539
fo	-4540
oi	-4541
โห	-4542
-19	-4543
alk	-4544
day	-4545
fas	-4546
กุม	-4547
ณฑล	-4548
นอง	-4549
เดิ	-4550
เทา	-4551
เบน	-4552
เผา	-4553
โฟม	-4554
Stud	-4555
ound	-4556
อล์ฟ	-4557
้นท์	-4558
ution	-4559
มหิดล	-4560
ให้ดี	-4561
Galaxy	-4562
ตัวเลข	-4563
ภารกิจ	-4564
ละเมิด	-4565
<_>"<_>	-4566
Service	-4567
Download	-4568
อุณหภูมิ	-4569
เวียดนาม	-4570
ห้องประชุม	-4571
ยินดีต้อนรับ	-4572
II	-4573
Sch	-4574
att	-4575
can	-4576
les	-4577
กอก	-4578
จาน	-4579
ซีน	-4580
ด็จ	-4581
ท้า	-4582
ผัง	-4583
พลี	-4584
ฟ่า	-4585
Wong	-4586
พัทยา	-4587
ไปตาม	-4588
กับคุณ	-4589
ธนบุรี	-4590
พูดถึง	-4591
ยาวนาน	-4592
เฉลี่ย	-4593
คืบหน้า	-4594
หลักฐาน	-4595
อาเซียน	-4596
ไม่เป็น	-4597
<_>-<_>-	-4598
ห้องสมุด	-4599
เลือกใช้	-4600
ใกล้เคียง	-4601
จัดจําหน่าย	-4602
สัญญาอนุญาต	-4603
เรียบร้อยแล้ว	-4604
ในแต่ละประเภท	-4605
Ed	-4606
MR	-4607
Sk	-4608
TR	-4609
ms	-4610
ถะ	-4611
อพ	-4612
Log	-4613
ize	-4614
จน์	-4615
นิด	-4616
ยับ	-4617
อดิ	-4618
านิ	-4619
Code	-4620
arch	-4621
กรีน	-4622
คลาส	-4623
จิปา	-4624
บรอบ	-4625
พริก	-4626
ฟื้น	-4627
หลับ	-4628
เราร	-4629
ตามิน	-4630
พัสดุ	-4631
ํานาญ	-4632
จิปาถะ	-4633
อยากจะ	-4634
เกินไป	-4635
website	-4636
การเล่น	-4637
จะมีการ	-4638
ที่บ้าน	-4639
ฝึกอบรม	-4640
ภาคกลาง	-4641
รีสอร์ท	-4642
เกษตรกร	-4643
<_>19<_>	-4644
Reserved	-4645
กล่าวว่า	-4646
ความจริง	-4647
เล็กน้อย	-4648
รายงานว่า	-4649
University	-4650
ผู้สูงอายุ	-4651
รุ	-4652
Not	-4653
War	-4654
ขี่	-4655
ข้น	-4656
พับ	-4657
อาง	-4658
แวะ	-4659
Love	-4660
duct	-4661
from	-4662
ติ้ง	-4663
นี้น	-4664
เนิด	-4665
กันใน	-4666
หายไป	-4667
เชลซี	-4668
ใช้ใน	-4669
นี้ได้	-4670
เสพติด	-4671
<_>»<_>	-4672
กระทั่ง	-4673
ความงาม	-4674
ถึงความ	-4675
น้ําตาล	-4676
พึงพอใจ	-4677
สแตนเลส	-4678
อย่าลืม	-4679
<_>17<_>	-4680
ตอบโจทย์	-4681
ผู้ชนะการ	-4682
พระราชทาน	-4683
แจ้งปัญหา	-4684
การเรียนการสอน	-4685
เลือกการโดยเปิด	-4686
Gu	-4687
กส	-4688
ผง	-4689
ics	-4690
ium	-4691
กัง	-4692
ขวา	-4693
ครร	-4694
ซอง	-4695
ทธ์	-4696
ธิน	-4697
ผูก	-4698
ม้า	-4699
สงบ	-4700
เรก	-4701
แคป	-4702
แทบ	-4703
edia	-4704
จุฬา	-4705
พนธ์	-4706
สาวๆ	-4707
เต้น	-4708
88<_>	-4709
ublic	-4710
ฟังก์	-4711
ุนแรง	-4712
Design	-4713
บรรทุก	-4714
สําอาง	-4715
แต่ถ้า	-4716
แต่ไม่	-4717
กําเนิด	-4718
นักร้อง	-4719
น่าสนใจ	-4720
วิตามิน	-4721
ให้เห็น	-4722
ครีเอทีฟ	-4723
ของลูกค้า	-4724
สายการบิน	-4725
ได้ที่นี่	-4726
วางจําหน่าย	-4727
po	-4728
อว	-4729
VID	-4730
คุก	-4731
นิต	-4732
พญา	-4733
ลุย	-4734
วุฒ	-4735
ไต้	-4736
that	-4737
คารา	-4738
ชมรม	-4739
ซ่อน	-4740
ท่วม	-4741
สตรี	-4742
หวัน	-4743
แพ็ค	-4744
Music	-4745
ค้นพบ	-4746
ผู้ชม	-4747
มอนส์	-4748
ในโลก	-4749
ไว้ใน	-4750
”<_><	-4751
กฏหมาย	-4752
ชาวไทย	-4753
ลําพูน	-4754
อนามัย	-4755
และแผน	-4756
ครบวงจร	-4757
ประดิษฐ	-4758
เดิมพัน	-4759
ไม่พอใจ	-4760
งานวิจัย	-4761
ตัวเองได้	-4762
การทํางานของ	-4763
รายการการจอง	-4764
53	-4765
Bu	-4766
FA	-4767
go	-4768
iP	-4769
ปุ	-4770
ีบ	-4771
็ท	-4772
๐๐	-4773
Car	-4774
icy	-4775
oll	-4776
ก็น	-4777
งคล	-4778
ทวี	-4779
มิล	-4780
ัตร	-4781
แขน	-4782
แซม	-4783
alth	-4784
ถ้วน	-4785
มาเล	-4786
เก่ง	-4787
แฟนๆ	-4788
-1<_>	-4789
Sport	-4790
ครรภ์	-4791
บทบาท	-4792
อิสระ	-4793
เมนต์	-4794
ครบรอบ	-4795
พัฒนาส	-4796
อธิบาย	-4797
โปรโมท	-4798
Comment	-4799
บ้านพัก	-4800
ผู้ป่วย	-4801
หมายถึง	-4802
เก้าอี้	-4803
เรื่อยๆ	-4804
<_>..<_>	-4805
กิโลเมตร	-4806
คอมมอนส์	-4807
ยังไม่มี	-4808
อยู่แล้ว	-4809
<_>200<_>	-4810
ฐานข้อมูล	-4811
▁เว็บไซต์	-4812
<_>100%<_>	-4813
,000,000<_>	-4814
เป็นอย่างดี	-4815
เรื่องราวของ	-4816
ให้คําปรึกษา	-4817
หน่วยวิทยบริการ	-4818
อํานวยความสะดวก	-4819
40	-4820
75	-4821
Go	-4822
bu	-4823
he	-4824
Hon	-4825
dis	-4826
ert	-4827
sch	-4828
str	-4829
กซ์	-4830
ซึม	-4831
ญแจ	-4832
ทรรศ	-4833
นี้อ	-4834
ไม่อ	-4835
press	-4836
กอล์ฟ	-4837
400<_>	-4838
ขายบ้าน	-4839
สระแก้ว	-4840
เจ้าตัว	-4841
ใช้เวลา	-4842
๊กเกอร์	-4843
<_>21<_>	-4844
จากประเทศ	-4845
รับประทาน	-4846
บัตรเครดิต	-4847
เต็มไปด้วย	-4848
แพทยศาสตร์	-4849
ศูนย์บริการ	-4850
นายกรัฐมนตรี	-4851
วิเคราะห์บอล	-4852
เนื่องในโอกาส	-4853
80	-4854
CD	-4855
Gr	-4856
gr	-4857
ll	-4858
ov	-4859
ซะ	-4860
200	-4861
ais	-4862
aut	-4863
eat	-4864
nai	-4865
ull	-4866
ต้ม	-4867
ถอด	-4868
ลอก	-4869
ลเส	-4870
เกง	-4871
แคม	-4872
ไล่	-4873
Club	-4874
Fire	-4875
ange	-4876
กราน	-4877
เฉิน	-4878
เทรด	-4879
<_>"<	-4880
earch	-4881
กุญแจ	-4882
ขับรถ	-4883
นี้มี	-4884
100<_>	-4885
igital	-4886
ซึ่งจะ	-4887
รสชาติ	-4888
อัพเดต	-4889
วงจรปิด	-4890
วิจารณ์	-4891
เลยครับ	-4892
แฟนคลับ	-4893
ในอนาคต	-4894
<_>40<_>	-4895
แขวงทุ่ง	-4896
และสังคม	-4897
ไทยแลนด์	-4898
<_>500<_>	-4899
คําแนะนํา	-4900
โดยคลิกที่	-4901
ความคืบหน้า	-4902
ที่มีคุณภาพ	-4903
เครื่องยนต์	-4904
เปรียบเทียบ	-4905
ในการทํางาน	-4906
บริหารธุรกิจ	-4907
ข้อมูลข่าวสาร	-4908
--	-4909
EX	-4910
กม	-4911
โฉ	-4912
iph	-4913
นึง	-4914
ปลด	-4915
ร่ม	-4916
อัด	-4917
เดต	-4918
เอช	-4919
แกล	-4920
โกง	-4921
Java	-4922
ames	-4923
ices	-4924
rive	-4925
ชื้น	-4926
ปลัด	-4927
สกุล	-4928
สัญญ	-4929
สแกน	-4930
ement	-4931
กระตุ	-4932
กําไร	-4933
ทนทาน	-4934
นีลเส	-4935
มาถึง	-4936
เวียน	-4937
ที่เคย	-4938
ทุจริต	-4939
รุนแรง	-4940
เขตบาง	-4941
Contact	-4942
Wongnai	-4943
ชาวบ้าน	-4944
ทราบว่า	-4945
นีลเส็น	-4946
ไม่น้อย	-4947
ความเห็น	-4948
มีความสุข	-4949
ห้องเรียน	-4950
เล่นเกมส์	-4951
ติดต่อสอบถาม	-4952
เกี่ยวกับเรา	-4953
เป็นอย่างมาก	-4954
เครื่องสําอาง	-4955
1=	-4956
To	-4957
bl	-4958
ไส	-4959
Bud	-4960
Min	-4961
Mod	-4962
Pan	-4963
aff	-4964
asy	-4965
cur	-4966
now	-4967
กาก	-4968
ดีย	-4969
ตึก	-4970
ผ่า	-4971
วัค	-4972
ินี	-4973
vent	-4974
คมนา	-4975
มูนิ	-4976
วุฒิ	-4977
หรี่	-4978
เบาะ	-4979
เลขา	-4980
.,<_>	-4981
90<_>	-4982
ยักษ์	-4983
ระวัง	-4984
สล็อต	-4985
เพลิน	-4986
เวลาน	-4987
แชมเป	-4988
โยธิน	-4989
ในรอบ	-4990
Script	-4991
คําว่า	-4992
ทําได้	-4993
อดิเรก	-4994
อารมณ์	-4995
ในกรณี	-4996
การเป็น	-4997
คอมมูนิ	-4998
ชื่อว่า	-4999
ตะวันตก	-5000
ปลายทาง	-5001
วัยรุ่น	-5002
อนุมัติ	-5003
<_>23<_>	-5004
<_>80<_>	-5005
คอนเสิร์	-5006
ตลอดเวลา	-5007
ศูนย์รวม	-5008
▁โรงเรียน	-5009
<_>2561<_>	-5010
<_>2564<_>	-5011
การประเมิน	-5012
บุคคลทั่วไป	-5013
ที่เกี่ยวข้องกับ	-5014
Am	-5015
CT	-5016
PO	-5017
SH	-5018
ês	-5019
คิ	-5020
ซุ	-5021
น้	-5022
ced	-5023
ซุป	-5024
บิด	-5025
พาย	-5026
ฟอง	-5027
วุธ	-5028
Link	-5029
Plus	-5030
Shop	-5031
ทริป	-5032
บกวน	-5033
ม่าน	-5034
สินค	-5035
หุ่น	-5036
โค้ช	-5037
ไซค์	-5038
5<_>-	-5039
75<_>	-5040
<_>09	-5041
uguês	-5042
กล้าม	-5043
คนรัก	-5044
ดํารง	-5045
ว่ามี	-5046
เมล็ด	-5047
Social	-5048
กางเกง	-5049
คมนาคม	-5050
ดูหนัง	-5051
สหรัฐฯ	-5052
อีเมล์	-5053
เทรนด์	-5054
ในบ้าน	-5055
ได้จาก	-5056
assword	-5057
ห้องนอน	-5058
ใช้เป็น	-5059
)<_>-<_>	-5060
การแพทย์	-5061
พร้อมส่ง	-5062
อย่างมาก	-5063
คอนเสิร์ต	-5064
<_>2560<_>	-5065
<_>2562<_>	-5066
คอมมูนิตี้	-5067
เคลื่อนที่	-5068
โทรศัพท์มือถือ	-5069
Bo	-5070
TA	-5071
TM	-5072
ng	-5073
วณ	-5074
ไบ	-5075
๊า	-5076
ans	-5077
ดิ์	-5078
ถัด	-5079
ลาก	-5080
ี๋ย	-5081
เวน	-5082
แมว	-5083
-201	-5084
<_>+	-5085
cord	-5086
ings	-5087
very	-5088
©<_>	-5089
ทุกร	-5090
ปั้น	-5091
สุนั	-5092
าศัย	-5093
ยุทธ์	-5094
▁ข่าว	-5095
System	-5096
motion	-5097
านุกรม	-5098
เอาไว้	-5099
▁เลือก	-5100
คนเดียว	-5101
คุ้มค่า	-5102
ตอบสนอง	-5103
ระบุว่า	-5104
ราชบุรี	-5105
ราชมงคล	-5106
Business	-5107
ชั่วคราว	-5108
ช่วงเวลา	-5109
เรื่องของ	-5110
ใช้งานได้	-5111
มีส่วนร่วม	-5112
หลักทรัพย์	-5113
ขั้นพื้นฐาน	-5114
กล้องวงจรปิด	-5115
ซีรี่ย์เกาหลี	-5116
เว็บไซต์ของท่าน	-5117
.4	-5118
yn	-5119
▁น	-5120
中文	-5121
Fin	-5122
ski	-5123
ton	-5124
ปัง	-5125
ฝูง	-5126
สาท	-5127
อบต	-5128
เบล	-5129
Live	-5130
añol	-5131
ครัฐ	-5132
ค่ํา	-5133
ราศี	-5134
เธอก	-5135
เลย์	-5136
Black	-5137
บล็อก	-5138
สตาร์	-5139
ินค้า	-5140
เลอร์	-5141
เสด็จ	-5142
โปรเจ	-5143
ไปกับ	-5144
ชํานาญ	-5145
ประมูล	-5146
ภาครัฐ	-5147
การปรับ	-5148
วันเกิด	-5149
เมื่อปี	-5150
Internet	-5151
แท็บเล็ต	-5152
ชื่อเสียง	-5153
ด้วยตนเอง	-5154
<_>2010<_>	-5155
ทางเว็บไซต์	-5156
ผู้ประกอบการ	-5157
▁เราใช้คุกกี้	-5158
EV	-5159
PE	-5160
mm	-5161
มด	-5162
Rom	-5163
acy	-5164
นึก	-5165
ยุก	-5166
ไข้	-5167
Word	-5168
กรีต	-5169
ท่าม	-5170
บุ๊ค	-5171
ปลอม	-5172
พอดี	-5173
ฟาร์	-5174
ราชา	-5175
หงส์	-5176
ี้ยว	-5177
Press	-5178
board	-5179
views	-5180
นิทาน	-5181
มองหา	-5182
มานาน	-5183
ยุกต์	-5184
สีสัน	-5185
ไม่อย	-5186
<_>199	-5187
Rights	-5188
กระชับ	-5189
คํานวณ	-5190
ทําบุญ	-5191
Twitter	-5192
การศึกษ	-5193
ช่างภาพ	-5194
ฤดูร้อน	-5195
แม่น้ํา	-5196
ดูซีรีย์	-5197
มาเลเซีย	-5198
ล่วงหน้า	-5199
อเมริกัน	-5200
ในขณะที่	-5201
<_>!!!<_>	-5202
<_>---<_>	-5203
ค่าบริการ	-5204
งานดีไซน์	-5205
งานอดิเรก	-5206
ออสเตรเลีย	-5207
เก็บรวบรวม	-5208
ของคุณได้เอง	-5209
เครื่องเขียน	-5210
ประกาศรายชื่อ	-5211
จัดการความเป็น	-5212
ได้รับความนิยม	-5213
จังหวัดเชียงใหม่	-5214
16	-5215
BB	-5216
Fi	-5217
UP	-5218
VD	-5219
ัค	-5220
ใย	-5221
era	-5222
fin	-5223
ifi	-5224
ise	-5225
คัพ	-5226
ซิล	-5227
บอน	-5228
พิธ	-5229
รัช	-5230
ริง	-5231
สาข	-5232
<_>–	-5233
lock	-5234
ขบวน	-5235
หมุน	-5236
องศา	-5237
าม่า	-5238
เร็ง	-5239
ไลด์	-5240
COVID	-5241
ative	-5242
ขายดี	-5243
มีผู้	-5244
ของแท้	-5245
วัคซีน	-5246
หลังคา	-5247
ไม่ถึง	-5248
การดูแล	-5249
ตัวละคร	-5250
สิ้นสุด	-5251
อยากได้	-5252
ท่ามกลาง	-5253
มุ่งมั่น	-5254
ออกอากาศ	-5255
โดยไม่มี	-5256
▁ประวัติ	-5257
เตรียมตัว	-5258
สงวนสิทธิ์	-5259
เพื่อสร้าง	-5260
ประโยชน์ของ	-5261
เผยแพร่ภายใต้	-5262
ประสบความสําเร็จ	-5263
Tel	-5264
amb	-5265
ero	-5266
mod	-5267
omi	-5268
ฉุก	-5269
ดัด	-5270
สอด	-5271
เขน	-5272
เทป	-5273
แจง	-5274
แซง	-5275
Auto	-5276
Work	-5277
date	-5278
กั้น	-5279
สนาน	-5280
คมชัด	-5281
ตัวตน	-5282
พลิเค	-5283
พัดลม	-5284
พันธ์	-5285
สถานะ	-5286
ในไทย	-5287
ไปเลย	-5288
Chrome	-5289
Office	-5290
กดปุ่ม	-5291
กันได้	-5292
ตาข่าย	-5293
รายวัน	-5294
กลยุทธ์	-5295
ฉุกเฉิน	-5296
ถ่ายรูป	-5297
เด็ดขาด	-5298
ด้วยวิธี	-5299
ของพวกเขา	-5300
ธรรมเนียม	-5301
อินเตอร์เน็ต	-5302
รายละเอียดของ	-5303
ส่วนตัวเองได้	-5304
แสดงความยินดี	-5305
มหาวิทยาลัยมหิดล	-5306
90	-5307
LA	-5308
วช	-5309
Ind	-5310
aid	-5311
oom	-5312
way	-5313
กกี	-5314
บรา	-5315
ฟิต	-5316
วิล	-5317
วิว	-5318
อุด	-5319
Post	-5320
ทุ่ม	-5321
มีคน	-5322
แหละ	-5323
้วาง	-5324
Honda	-5325
การัน	-5326
ชาร์จ	-5327
ทําเล	-5328
บางคน	-5329
ประเพ	-5330
พญาไท	-5331
ยูฟ่า	-5332
เราก็	-5333
เล็กๆ	-5334
การรับ	-5335
จากผู้	-5336
ตอบแทน	-5337
นิทรรศ	-5338
ศักดิ์	-5339
สถาปัต	-5340
พระเจ้า	-5341
รุ่นที่	-5342
แท็กซี่	-5343
ไต้หวัน	-5344
ประยุกต์	-5345
กลุ่มสาระ	-5346
สถานศึกษา	-5347
เงินเดือน	-5348
แนะนําให้	-5349
ยุทธศาสตร์	-5350
หากต้องการ	-5351
PH	-5352
sm	-5353
Mon	-5354
ony	-5355
pap	-5356
ual	-5357
ype	-5358
รัต	-5359
สัช	-5360
สิบ	-5361
เคส	-5362
เดล	-5363
ense	-5364
ติชม	-5365
ถ้วย	-5366
สดใส	-5367
แต่น	-5368
โพธิ	-5369
,000฿	-5370
.3<_>	-5371
<_>26	-5372
Group	-5373
กังวล	-5374
นิเทศ	-5375
รบกวน	-5376
ศรีสะ	-5377
หาของ	-5378
แอนด์	-5379
<_>103	-5380
Policy	-5381
ograph	-5382
การงาน	-5383
ตลอดจน	-5384
ต้นแบบ	-5385
ที่ให้	-5386
้วางใจ	-5387
ปลาหมึก	-5388
ผลิตจาก	-5389
สีเขียว	-5390
โปร่งใส	-5391
Research	-5392
จะทําการ	-5393
ลาดพร้าว	-5394
วิทยาเขต	-5395
ศรีสะเกษ	-5396
สนุกสนาน	-5397
เดียวกับ	-5398
ตั้งแต่ปี	-5399
บทความนี้	-5400
อุดมศึกษา	-5401
แสดงที่มา	-5402
JavaScript	-5403
Technology	-5404
บริหารจัดการ	-5405
เครื่องใช้ไฟฟ้า	-5406
La	-5407
Sl	-5408
แว	-5409
Lim	-5410
arm	-5411
ชิล	-5412
ดาล	-5413
ตลก	-5414
ฟิน	-5415
ศิษ	-5416
เกะ	-5417
เสธ	-5418
แอด	-5419
ใหม	-5420
Priv	-5421
cent	-5422
thai	-5423
กรับ	-5424
ถ้ํา	-5425
ท้อน	-5426
ผสาน	-5427
สกัด	-5428
ามาก	-5429
แผนก	-5430
35<_>	-5431
<_>28	-5432
คุกกี	-5433
ซอฟต์	-5434
เร็วๆ	-5435
ในเขต	-5436
ใส่ใจ	-5437
Vision	-5438
iphone	-5439
คุณแม่	-5440
ใบหน้า	-5441
<_>©<_>	-5442
กินแบ่ง	-5443
คอนกรีต	-5444
ประเพณี	-5445
รับผลิต	-5446
องค์การ	-5447
กประสงค์	-5448
กันอย่าง	-5449
คุณภาพดี	-5450
เท่าไหร่	-5451
ที่ปรึกษา	-5452
อย่างยิ่ง	-5453
เอกลักษณ์	-5454
ป้องกันและ	-5455
เป็นเรื่อง	-5456
มีประสิทธิภาพ	-5457
ความเคลื่อนไหว	-5458
เทคโนโลยีราชมงคล	-5459
35	-5460
DA	-5461
No	-5462
ม์	-5463
255	-5464
Esp	-5465
Mas	-5466
PDF	-5467
ere	-5468
pos	-5469
ซิน	-5470
มติ	-5471
Budd	-5472
Tour	-5473
iang	-5474
ideo	-5475
ชมพู	-5476
ซ้อน	-5477
ถนัด	-5478
พรรค	-5479
ฟ้อง	-5480
วิกฤ	-5481
สติก	-5482
แค้น	-5483
Smart	-5484
phone	-5485
กล้วย	-5486
นั้นๆ	-5487
บบ่อย	-5488
พิพิธ	-5489
มาตรา	-5490
วีซ่า	-5491
สุนัข	-5492
อาวุธ	-5493
เอฟซี	-5494
School	-5495
ตรงกับ	-5496
ถ้าคุณ	-5497
เซ็นต์	-5498
นั่นเอง	-5499
พี่น้อง	-5500
ลูกจ้าง	-5501
ส่วนผสม	-5502
หลวงพ่อ	-5503
เข้มข้น	-5504
เจ้าสาว	-5505
เต็มที่	-5506
ใหม่ของ	-5507
การรักษา	-5508
ประดิษฐ์	-5509
วิจัยและ	-5510
ไว้วางใจ	-5511
Microsoft	-5512
ข้อบังคับ	-5513
ตามลําดับ	-5514
ที่อยู่ใน	-5515
ที่เที่ยว	-5516
เกาหลีใต้	-5517
เป็นต้นไป	-5518
โดยไม่ต้อง	-5519
▁สํานักงาน	-5520
ขึ้นทะเบียน	-5521
เป็นเจ้าของ	-5522
และวัฒนธรรม	-5523
คณะเทคโนโลยี	-5524
ท่องเที่ยวและ	-5525
ดูรายละเอียดที่	-5526
ให้ออกเนื่องจาก	-5527
79	-5528
IM	-5529
กอ	-5530
ปฎ	-5531
็ป	-5532
Ass	-5533
ONE	-5534
ica	-5535
ดอท	-5536
มิว	-5537
หนู	-5538
่ห์	-5539
ific	-5540
name	-5541
ones	-5542
post	-5543
ward	-5544
คลิน	-5545
ค้าง	-5546
คําร	-5547
ญาติ	-5548
ทันต	-5549
ท็อป	-5550
นําร	-5551
พาร์	-5552
ย้ํา	-5553
อาณา	-5554
ุดิบ	-5555
โฆษณ	-5556
<_>32	-5557
ก็ไม่	-5558
ของผม	-5559
นิสิต	-5560
น่าจะ	-5561
มันจะ	-5562
สมควร	-5563
rowser	-5564
กันว่า	-5565
มีเดีย	-5566
รับฟัง	-5567
ส่งฟรี	-5568
เลขานุ	-5569
้อย่าง	-5570
ทั้งคู่	-5571
หลังการ	-5572
ให้ท่าน	-5573
ที่มีการ	-5574
ร้านกาแฟ	-5575
ในวันนี้	-5576
formation	-5577
ก่อนที่จะ	-5578
คุกกี้นี้	-5579
ที่พบบ่อย	-5580
ผู้ติดต่อ	-5581
ข่าวฟุตบอล	-5582
ความเสี่ยง	-5583
สําหรับผู้	-5584
และกิจกรรม	-5585
บนแพลตฟอร์ม	-5586
สลากกินแบ่ง	-5587
เรียงตามราคา	-5588
ครีเอทีฟคอมมอนส์	-5589
13	-5590
At	-5591
BE	-5592
EM	-5593
ae	-5594
▁“	-5595
cre	-5596
กุน	-5597
ซาก	-5598
รํา	-5599
อัญ	-5600
เกจ	-5601
<_>➞	-5602
Asia	-5603
ดิโอ	-5604
นุ่ม	-5605
หญ้า	-5606
ฮาร์	-5607
ี๋ยว	-5608
เอ็ด	-5609
แสวง	-5610
โตโย	-5611
45<_>	-5612
<_>02	-5613
บน้ํา	-5614
ฤทธิ์	-5615
ลิงก์	-5616
หมื่น	-5617
เขาก็	-5618
เบี้ย	-5619
ไปใช้	-5620
กับทาง	-5621
บางเขน	-5622
ไม่ให้	-5623
,500<_>	-5624
กระตุ้น	-5625
การันตี	-5626
ที่ตั้ง	-5627
ทําอะไร	-5628
มีปัญหา	-5629
ยังเป็น	-5630
ต่างชาติ	-5631
ทําอาหาร	-5632
ลุ่มน้ํา	-5633
ไม่สะดวก	-5634
ทุกประเภท	-5635
ปรับอากาศ	-5636
เลขานุการ	-5637
แจ้งเตือน	-5638
ทางการแพทย์	-5639
แบบเดียวกัน	-5640
เปิดรับสมัคร	-5641
ได้รับอนุญาต	-5642
23	-5643
CP	-5644
Cy	-5645
SC	-5646
Si	-5647
Ul	-5648
ฝา	-5649
Art	-5650
Mac	-5651
SEO	-5652
กษ์	-5653
ชิด	-5654
ธิต	-5655
ยาส	-5656
สมร	-5657
แคล	-5658
โคล	-5659
Blog	-5660
Open	-5661
ishi	-5662
ซ้อม	-5663
ราจร	-5664
เกษม	-5665
เข็น	-5666
เจ็ด	-5667
เมีย	-5668
้าระ	-5669
<_>29	-5670
Elect	-5671
Manag	-5672
itsub	-5673
คุณจะ	-5674
ศิษย์	-5675
สาธิต	-5676
สามัญ	-5677
สไลด์	-5678
หายใจ	-5679
เชียล	-5680
เตียง	-5681
และดี	-5682
โอเกะ	-5683
กองทัพ	-5684
ของนัก	-5685
คอนเทน	-5686
ดียิ่ง	-5687
ทําลาย	-5688
ปฏิเสธ	-5689
สาหกิจ	-5690
เชียร์	-5691
,<_>199	-5692
comment	-5693
การอบรม	-5694
คนหนึ่ง	-5695
เกิดการ	-5696
ข่าวกีฬา	-5697
ต่ํากว่า	-5698
ทางเลือก	-5699
สินเชื่อ	-5700
itsubishi	-5701
พัฒนาระบบ	-5702
ยังสามารถ	-5703
เกมมือถือ	-5704
แข็งแกร่ง	-5705
ไม่จํากัด	-5706
<_>2014<_>	-5707
สถาปัตยกรรม	-5708
นําเสนอเนื้อหา	-5709
Ab	-5710
UT	-5711
aj	-5712
งด	-5713
ฟี	-5714
มล	-5715
๊บ	-5716
Iss	-5717
afe	-5718
gan	-5719
ock	-5720
vid	-5721
จตุ	-5722
ดาย	-5723
บวก	-5724
ลอน	-5725
เด้	-5726
<_>>	-5727
ล้วน	-5728
สิริ	-5729
หมวก	-5730
ไอที	-5731
ไอเท	-5732
.2<_>	-5733
umber	-5734
velop	-5735
ที่คน	-5736
นาการ	-5737
สมาธิ	-5738
หน้าร	-5739
เนียน	-5740
ในศึก	-5741
▁หมู่	-5742
คุณค่า	-5743
จังหวะ	-5744
สะท้อน	-5745
ฮ่องกง	-5746
<_>➞<_>	-5747
จัดเต็ม	-5748
ซ่อมแซม	-5749
ตรวจหวย	-5750
ที่แล้ว	-5751
ผลบอลสด	-5752
สนามบิน	-5753
ในเมือง	-5754
<_>-<_><	-5755
<_>28<_>	-5756
><_>,<_>	-5757
ยาเสพติด	-5758
วิสาหกิจ	-5759
เดินทางไป	-5760
ไลฟ์สไตล์	-5761
เร็วที่สุด	-5762
ต่างจังหวัด	-5763
สําหรับเด็ก	-5764
ร่วมงานกับเรา	-5765
คําถามที่พบบ่อย	-5766
==	-5767
IE	-5768
PR	-5769
eš	-5770
ทท	-5771
100	-5772
AIL	-5773
Mag	-5774
Set	-5775
ino	-5776
ons	-5777
ปฎิ	-5778
พ่น	-5779
ห่อ	-5780
เวศ	-5781
เศร	-5782
ions	-5783
ping	-5784
ถาวร	-5785
มนต์	-5786
ม่วง	-5787
ย่อม	-5788
ศัตร	-5789
ส่อง	-5790
หลาน	-5791
เราน	-5792
โน้ม	-5793
โหมด	-5794
12<_>	-5795
บัญชา	-5796
ฟาร์ม	-5797
มันส์	-5798
มารับ	-5799
อวกาศ	-5800
ations	-5801
กรานต์	-5802
ของครู	-5803
ผิวขาว	-5804
ระเบิด	-5805
รับจัด	-5806
ลิ้งค์	-5807
อบอุ่น	-5808
อยู่บน	-5809
อัปเดต	-5810
cookies	-5811
olution	-5812
ตัวจริง	-5813
มาพร้อม	-5814
รายวิชา	-5815
ร้านขาย	-5816
วันหยุด	-5817
หงส์แดง	-5818
ในกลุ่ม	-5819
ของตนเอง	-5820
ชลประทาน	-5821
ตัวเลือก	-5822
น้ําท่วม	-5823
สงกรานต์	-5824
อย่างที่	-5825
คาราโอเกะ	-5826
ฟุตบอลโลก	-5827
ยอดเยี่ยม	-5828
สินค้าที่	-5829
เชื่อมโยง	-5830
แนวทางการ	-5831
และแฟชั่น	-5832
กล้ามเนื้อ	-5833
ทีมชาติไทย	-5834
เกมออนไลน์	-5835
เครื่องวัด	-5836
ความละเอียด	-5837
หลังจากนั้น	-5838
ตั๋วเครื่องบิน	-5839
โครงสร้างองค์กร	-5840
86	-5841
EA	-5842
ww	-5843
ซม	-5844
ปอ	-5845
ฮี	-5846
ALL	-5847
Aud	-5848
COM	-5849
Fil	-5850
Int	-5851
TOP	-5852
VIP	-5853
bid	-5854
eli	-5855
yle	-5856
กีฬ	-5857
ซิง	-5858
ซือ	-5859
พรม	-5860
รอน	-5861
ริด	-5862
รุก	-5863
สวด	-5864
อเน	-5865
เวป	-5866
แหง	-5867
IGHT	-5868
More	-5869
iPad	-5870
กิ่ง	-5871
ด่าน	-5872
ตุ๊ก	-5873
ถูกล	-5874
ทรัล	-5875
พึ่ง	-5876
โค้ด	-5877
25<_>	-5878
48<_>	-5879
<_>27	-5880
Drive	-5881
ining	-5882
คลื่น	-5883
ภูเขา	-5884
ไมโคร	-5885
กีตาร์	-5886
ขับขี่	-5887
ดราม่า	-5888
ที่นี้	-5889
พระคุณ	-5890
วิศวกร	-5891
แผนผัง	-5892
ไม่ควร	-5893
<_>?<_>	-5894
สูญเสีย	-5895
4<_>:<_>	-5896
ก้าวหน้า	-5897
เพื่อรับ	-5898
แห่งความ	-5899
ซอฟต์แวร์	-5900
ทําให้คุณ	-5901
ประเภทของ	-5902
ล้านปอนด์	-5903
กระเป๋าผ้า	-5904
พิพิธภัณฑ์	-5905
และของเก่า	-5906
วีดีโอเกมส์	-5907
การใช้บริการ	-5908
คณะผู้บริหาร	-5909
โครงการพัฒนา	-5910
ครูและบุคลากร	-5911
รับทําเว็บไซต์	-5912
กล้องและอุปกรณ์	-5913
คณะบริหารธุรกิจ	-5914
05	-5915
43	-5916
GO	-5917
IA	-5918
pc	-5919
พก	-5920
มร	-5921
สส	-5922
ูด	-5923
▁"	-5924
202	-5925
Nok	-5926
ขีด	-5927
ด้า	-5928
ธัญ	-5929
ลัพ	-5930
เมา	-5931
แขก	-5932
โนน	-5933
โบร	-5934
<_>*	-5935
Sort	-5936
Star	-5937
ยสาร	-5938
รูปร	-5939
วิกิ	-5940
หนุน	-5941
ังคม	-5942
าสาม	-5943
Photo	-5944
มวลชน	-5945
วัดผล	-5946
ศัตรู	-5947
เทียน	-5948
กลับไป	-5949
โดยที่	-5950
ไม่กี่	-5951
จัดเก็บ	-5952
ทางเว็บ	-5953
ภาพถ่าย	-5954
รถกระบะ	-5955
วิทยากร	-5956
หน้านี้	-5957
แจ้งให้	-5958
3<_>:<_>	-5959
ที่อยู่อ	-5960
อาณาจักร	-5961
เซ็นทรัล	-5962
ราคาพิเศษ	-5963
ว่าราชการ	-5964
สัญญาว่าจะ	-5965
,<_>1995<_>-	-5966
รับผิดชอบต่อ	-5967
แพร่ระบาดของ	-5968
การเปลี่ยนแปลง	-5969
อาหารและสุขภาพ	-5970
เว็บไซต์นี้ถูก	-5971
85	-5972
FI	-5973
GE	-5974
LO	-5975
LT	-5976
ür	-5977
ช์	-5978
ปน	-5979
Cam	-5980
Mot	-5981
rid	-5982
rol	-5983
ควิ	-5984
คิว	-5985
ดี้	-5986
นาว	-5987
สิค	-5988
ั้ง	-5989
เนส	-5990
เฟซ	-5991
โคน	-5992
โฉม	-5993
โพง	-5994
๒๕๖	-5995
ลื่น	-5996
สาวน	-5997
หมอน	-5998
เก๋ง	-5999
โปร์	-6000
<_>34	-6001
<_>40	-6002
Enter	-6003
ก็ยัง	-6004
คล้อง	-6005
ถัดไป	-6006
มาฝาก	-6007
ระนอง	-6008
สกรีน	-6009
แล้วย	-6010
900<_>	-6011
Contin	-6012
คเตอร์	-6013
ต้องมี	-6014
ท้าทาย	-6015
บันดาล	-6016
ลงสนาม	-6017
ลงเล่น	-6018
สุวรรณ	-6019
อินทรา	-6020
เลยค่ะ	-6021
เอ็กซ์	-6022
ให้ผู้	-6023
จิตอาสา	-6024
ตามความ	-6025
ต่างกัน	-6026
ยกระดับ	-6027
วอลเลย์	-6028
หาดใหญ่	-6029
ได้ทั้ง	-6030
ซัมเมอร์	-6031
พร้อมกัน	-6032
รหัสผ่าน	-6033
สุดพิเศษ	-6034
เขียนโดย	-6035
แหล่งรวม	-6036
ไม่ว่าจะ	-6037
ขายที่ดิน	-6038
ทํานายฝัน	-6039
เลือกซื้อ	-6040
ของนีลเส็น	-6041
วอลเลย์บอล	-6042
ส่งข้อความ	-6043
ขึ้นอยู่กับ	-6044
ทีวีออนไลน์	-6045
ที่สุดในโลก	-6046
การใช้คุกกี้	-6047
นโยบายและแผน	-6048
ได้รับรางวัล	-6049
ของอินเทอร์เน็ต	-6050
อุปกรณ์ภายในบ้าน	-6051
CS	-6052
Ep	-6053
ne	-6054
ผา	-6055
รบ	-6056
ัต	-6057
Can	-6058
ara	-6059
ext	-6060
por	-6061
ภรร	-6062
มัด	-6063
สวี	-6064
สิก	-6065
าที	-6066
แนบ	-6067
Ital	-6068
Show	-6069
hist	-6070
ince	-6071
user	-6072
ถั่ว	-6073
บุตร	-6074
ปลีก	-6075
สลับ	-6076
ใช้น	-6077
้าส์	-6078
99<_>	-6079
Issue	-6080
Steam	-6081
ating	-6082
ดําริ	-6083
ทรีย์	-6084
ราคาน	-6085
ลงตัว	-6086
เศร้า	-6087
โดจิน	-6088
▁นื้อ	-6089
ทิศทาง	-6090
นําโดย	-6091
มาดริด	-6092
วิจารณ	-6093
หน้าอก	-6094
เจอกับ	-6095
เสน่ห์	-6096
และงาน	-6097
ในด้าน	-6098
ไม่นาน	-6099
ไม่แพง	-6100
Network	-6101
ความว่า	-6102
นิตยสาร	-6103
ลบภายใน	-6104
ในเครือ	-6105
ได้ด้วย	-6106
การแก้ไข	-6107
ของฉันจะ	-6108
บางครั้ง	-6109
รัฐมนตรี	-6110
ราคากลาง	-6111
วัตถุดิบ	-6112
สื่อข่าว	-6113
เจ้าบ้าน	-6114
ปีที่แล้ว	-6115
สภาพอากาศ	-6116
สิงห์บุรี	-6117
ส่งสินค้า	-6118
เลขาธิการ	-6119
<_>2021<_>	-6120
เสริมสร้าง	-6121
โปรดในเวลา	-6122
▁นื้อหาของ	-6123
ลบผู้ติดต่อ	-6124
เทศบาลเมือง	-6125
แบบแสดงที่มา	-6126
ปฏิทินกิจกรรม	-6127
ระหว่างประเทศ	-6128
ร่วมมือกับคุณ	-6129
หากคุณไม่พอใจ	-6130
เลือกหมวดหมู่	-6131
และสัญญาว่าจะ	-6132
จัดซื้อจัดจ้าง	-6133
อุทยานแห่งชาติ	-6134
และสิ่งแวดล้อม	-6135
บนแพลตฟอร์มอื่น	-6136
เตรียมความพร้อม	-6137
36	-6138
tv	-6139
ชุ	-6140
หก	-6141
001	-6142
BTS	-6143
Mer	-6144
inn	-6145
ska	-6146
ดีล	-6147
ทูต	-6148
มิต	-6149
ม่า	-6150
สปา	-6151
อลู	-6152
อู่	-6153
ฮอต	-6154
ิยม	-6155
ิ้ง	-6156
เนา	-6157
เวช	-6158
Supp	-6159
ranç	-6160
tain	-6161
กรุณ	-6162
ฟฟิศ	-6163
สลาย	-6164
สาทร	-6165
สิงค	-6166
แมนฯ	-6167
ไหม้	-6168
›<_>	-6169
.4<_>	-6170
55<_>	-6171
Admin	-6172
agram	-6173
คนนี้	-6174
ปรากฎ	-6175
พวกเข	-6176
มายัง	-6177
ลัพธ์	-6178
เงียบ	-6179
เภสัช	-6180
ของทาง	-6181
ขายส่ง	-6182
คลินิก	-6183
ที่เขา	-6184
บําบัด	-6185
แม้แต่	-6186
ในตลาด	-6187
ในพิธี	-6188
rançais	-6189
ครบถ้วน	-6190
มองเห็น	-6191
มาเยือน	-6192
มีชีวิต	-6193
สระบุรี	-6194
ออกเป็น	-6195
เข้ากับ	-6196
โซเชียล	-6197
<_>,<_><	-6198
<_>90<_>	-6199
สิงคโปร์	-6200
Promotion	-6201
คอร์ดเพลง	-6202
คุณจะต้อง	-6203
บริหารงาน	-6204
สําคัญของ	-6205
ใช้วิจารณ	-6206
ไม่รองรับ	-6207
จ้างศิลปิน	-6208
ถือว่าเป็น	-6209
ทําหน้าที่	-6210
อย่างเดียว	-6211
คลิ๊กที่นี่	-6212
ส่งเสริมการ	-6213
เกมส์มือถือ	-6214
เป็นพนักงาน	-6215
ละครย้อนหลัง	-6216
อย่างรวดเร็ว	-6217
เป็นครั้งแรก	-6218
เราใช้คุกกี้	-6219
วิธีการใช้งาน	-6220
ฟังเพลงออนไลน์	-6221
ร้านค้าออนไลน์	-6222
เชิงปฏิบัติการ	-6223
2=	-6224
32	-6225
TC	-6226
ft	-6227
vs	-6228
ยศ	-6229
ลึ	-6230
๋ง	-6231
Big	-6232
Dan	-6233
Ret	-6234
asc	-6235
bal	-6236
mla	-6237
top	-6238
urn	-6239
กรน	-6240
ดอย	-6241
ปีก	-6242
มูฟ	-6243
รวย	-6244
ล้ม	-6245
เรต	-6246
apan	-6247
coin	-6248
link	-6249
กสทช	-6250
พ่วง	-6251
ยุติ	-6252
ยูโร	-6253
รักษ	-6254
ลดลง	-6255
ศาลา	-6256
าราม	-6257
ไซส์	-6258
ไปรษ	-6259
)<_>(	-6260
:<_><	-6261
Staff	-6262
oomla	-6263
สมรรถ	-6264
หูฟัง	-6265
ากรรม	-6266
เกลือ	-6267
ในตอน	-6268
Season	-6269
คัดสรร	-6270
คําแหง	-6271
ชายแดน	-6272
ชุดที่	-6273
ดอทคอม	-6274
ดีเด่น	-6275
ด้านบน	-6276
ผ่านไป	-6277
มะเร็ง	-6278
มีทั้ง	-6279
รังสิต	-6280
ส่งมอบ	-6281
เกลียว	-6282
เครียด	-6283
<_>!<_>	-6284
Program	-6285
จุดเด่น	-6286
ช่วยกัน	-6287
ตู้เย็น	-6288
มันเป็น	-6289
มีโอกาส	-6290
อาร์เซน	-6291
เคลียร์	-6292
เซ็กซี่	-6293
แคปชั่น	-6294
ชิงแชมป์	-6295
ที่เหลือ	-6296
น้ําเงิน	-6297
บันดาลใจ	-6298
ผู้ประสบ	-6299
ในสังกัด	-6300
ไม่มีใคร	-6301
▁สําหรับ	-6302
รามคําแหง	-6303
สงเคราะห์	-6304
ให้ข้อมูล	-6305
Mitsubishi	-6306
กระทรวงการ	-6307
รับทําเว็บ	-6308
อลูมิเนียม	-6309
มอเตอร์ไซค์	-6310
คุณไม่สามารถ	-6311
ค่าธรรมเนียม	-6312
ข้อมูลส่วนตัว	-6313
ตัวแทนจําหน่าย	-6314
มัธยมศึกษาปีที่	-6315
1,	-6316
76	-6317
AB	-6318
HI	-6319
SM	-6320
จม	-6321
ทบ	-6322
โว	-6323
Cor	-6324
Out	-6325
che	-6326
mon	-6327
oud	-6328
กัล	-6329
ชิน	-6330
ตัก	-6331
ตับ	-6332
ปัด	-6333
ผัด	-6334
พหล	-6335
มัล	-6336
ฮอน	-6337
ีกา	-6338
เมฆ	-6339
โจม	-6340
ไส้	-6341
,001	-6342
-255	-6343
Deut	-6344
Fore	-6345
User	-6346
ency	-6347
กราฟ	-6348
ปาร์	-6349
ม้วน	-6350
ล้ํา	-6351
หยิบ	-6352
เข่า	-6353
แหลม	-6354
.<_>0	-6355
aidee	-6356
ories	-6357
ument	-6358
มังกร	-6359
ะครับ	-6360
เลียน	-6361
และใน	-6362
โอลิม	-6363
Public	-6364
mobile	-6365
ของรัฐ	-6366
ตามแบบ	-6367
นอนกรน	-6368
น้ํายา	-6369
ประสาท	-6370
ผลผลิต	-6371
ลดความ	-6372
ลําโพง	-6373
สอบสวน	-6374
เคลือบ	-6375
แรกของ	-6376
ไทยลีก	-6377
<_>›<_>	-6378
Deutsch	-6379
Privacy	-6380
กันแล้ว	-6381
การเข้า	-6382
ง่ายดาย	-6383
จตุจักร	-6384
ฉบับที่	-6385
บ้านและ	-6386
หญิงสาว	-6387
ไม่ค่อย	-6388
ทุกครั้ง	-6389
รถบรรทุก	-6390
ส่งผลให้	-6391
กระเบื้อง	-6392
ต้นสังกัด	-6393
บอกเลยว่า	-6394
สัตว์น้ํา	-6395
หาช่างภาพ	-6396
<_>2015<_>	-6397
ของประชาชน	-6398
น่าเชื่อถือ	-6399
ร้านหนังสือ	-6400
ลงประกาศฟรี	-6401
อย่างแน่นอน	-6402
คุณสามารถใช้	-6403
ที่ได้รับการ	-6404
ส่วนท้องถิ่น	-6405
Hy	-6406
LL	-6407
so	-6408
ฆา	-6409
พง	-6410
Leg	-6411
duc	-6412
irl	-6413
คุ้	-6414
ชนม	-6415
ซีซ	-6416
ดัก	-6417
ปิน	-6418
พาส	-6419
ยืม	-6420
ล่ม	-6421
หีบ	-6422
อภิ	-6423
ะบบ	-6424
เบร	-6425
เฟส	-6426
เอน	-6427
เอล	-6428
แทร	-6429
back	-6430
comp	-6431
tube	-6432
ควัน	-6433
คีย์	-6434
ค่าน	-6435
ณีย์	-6436
นิติ	-6437
รั้ว	-6438
วรรษ	-6439
เล็บ	-6440
แต่อ	-6441
ไหว้	-6442
-3<_>	-6443
ience	-6444
ณรงค์	-6445
ทันใจ	-6446
พิการ	-6447
วิหาร	-6448
หายาก	-6449
เกร็ด	-6450
โชคดี	-6451
ในยุค	-6452
Applic	-6453
erland	-6454
พัฒนาน	-6455
bidding	-6456
คุ้กกี้	-6457
ดูบอลสด	-6458
ภายหลัง	-6459
รับเงิน	-6460
สารเคมี	-6461
อันเป็น	-6462
เพลงฮิต	-6463
แท้จริง	-6464
และสิ่ง	-6465
1<_>:<_>	-6466
6<_>:<_>	-6467
<_>::<_>	-6468
Buddhist	-6469
การวิจัย	-6470
ชนมพรรษา	-6471
เสริมสวย	-6472
ขายสินค้า	-6473
ข้อมูลที่	-6474
ประสานงาน	-6475
เป็นเพียง	-6476
เรื่องการ	-6477
ขั้นตอนการ	-6478
ดียิ่งขึ้น	-6479
บุคคลเพื่อ	-6480
หลักการและ	-6481
จักรยานยนต์	-6482
ที่จะสามารถ	-6483
พระพุทธเจ้า	-6484
และจําหน่าย	-6485
ขออภัยในความ	-6486
ผู้ว่าราชการ	-6487
ใช้วิจารณญาณ	-6488
ออกแบบเว็บไซต์	-6489
เข้าชมเว็บไซต์	-6490
3=	-6491
89	-6492
Ti	-6493
รพ	-6494
ลอ	-6495
-29	-6496
Bra	-6497
Cal	-6498
els	-6499
ror	-6500
กรถ	-6501
เลค	-6502
แตะ	-6503
แบค	-6504
Full	-6505
Gold	-6506
iano	-6507
page	-6508
ster	-6509
คราบ	-6510
ชุ่ม	-6511
ซื่อ	-6512
ปราม	-6513
แก๊ส	-6514
แมลง	-6515
<_>2,	-6516
email	-6517
กาชาด	-6518
อินโด	-6519
เสียด	-6520
โคราช	-6521
ให้คน	-6522
Kaidee	-6523
design	-6524
จุฬาลง	-6525
ที่ชอบ	-6526
ย้ายไป	-6527
รถเข็น	-6528
เขื่อน	-6529
เม้นท์	-6530
เส้นผม	-6531
แรกที่	-6532
ใหม่ใน	-6533
ตู้โชว์	-6534
ราคาทอง	-6535
หน้ากาก	-6536
อําเภอบ	-6537
เชิญชวน	-6538
เปิดให้	-6539
เพื่อดู	-6540
ได้เห็น	-6541
ความนิยม	-6542
ทั้งหลาย	-6543
บนมือถือ	-6544
ผ่อนคลาย	-6545
พหลโยธิน	-6546
ร้อยเอ็ด	-6547
ส่วนกลาง	-6548
หาเพื่อน	-6549
ไปรษณีย์	-6550
▁หน้าแรก	-6551
ความเชื่อ	-6552
นิทรรศการ	-6553
ออกแบบและ	-6554
<_>2565<_>	-6555
บ้านเดี่ยว	-6556
ลดน้ําหนัก	-6557
พระราชดําริ	-6558
แรงบันดาลใจ	-6559
เพื่อเป็นการ	-6560
กลุ่มเป้าหมาย	-6561
เปิดให้บริการ	-6562
เนื้อหาทั้งหมด	-6563
47	-6564
FT	-6565
NA	-6566
la	-6567
ศก	-6568
่ย	-6569
NET	-6570
THE	-6571
Val	-6572
esk	-6573
ley	-6574
pre	-6575
กูล	-6576
ชิป	-6577
ฟอก	-6578
ู้ด	-6579
แผง	-6580
Char	-6581
Gift	-6582
Pink	-6583
room	-6584
กุ้ง	-6585
ฉลาด	-6586
ตัวย	-6587
ตําร	-6588
นารี	-6589
ปารี	-6590
ริยา	-6591
ล็อค	-6592
หมาก	-6593
เซโล	-6594
เย็บ	-6595
แฟรน	-6596
Email	-6597
ities	-6598
ขายอี	-6599
จราจร	-6600
จิตใจ	-6601
ดูงาน	-6602
ตะพาน	-6603
ภรรยา	-6604
มพลาด	-6605
มาได้	-6606
วัฒนะ	-6607
สีฟ้า	-6608
เรือง	-6609
แม้จะ	-6610
ก่อนจะ	-6611
คริสต์	-6612
ชัยชนะ	-6613
ตอบรับ	-6614
มุมมอง	-6615
วารสาร	-6616
เฮ้าส์	-6617
แต่วัน	-6618
แต่ว่า	-6619
และให้	-6620
ได้จัด	-6621
้ํามัน	-6622
Digital	-6623
Station	-6624
service	-6625
กรุงไทย	-6626
กองกลาง	-6627
ซอฟแวร์	-6628
ทางช่อง	-6629
ที่ใหญ่	-6630
บริษัทฯ	-6631
ประกาศฯ	-6632
เลเซอร์	-6633
เล่นเกม	-6634
แนวโน้ม	-6635
โตโยต้า	-6636
ในวงการ	-6637
่อสร้าง	-6638
▁สินค้า	-6639
0,000<_>	-6640
<_>27<_>	-6641
<_>32<_>	-6642
ขอแนะนํา	-6643
ความหมาย	-6644
ทางศาสนา	-6645
บาร์เซโล	-6646
รายเดือน	-6647
อาทิเช่น	-6648
เรียนต่อ	-6649
Instagram	-6650
WordPress	-6651
ขายอีบุ๊ก	-6652
พระบรมราช	-6653
หรือเปล่า	-6654
ข้อบังคับฯ	-6655
รายงานสรุป	-6656
เพื่อสังคม	-6657
ปฏิบัติธรรม	-6658
ผู้สื่อข่าว	-6659
ที่คุณต้องการ	-6660
การบริหารจัดการ	-6661
CE	-6662
ML	-6663
OM	-6664
PL	-6665
UM	-6666
กศ	-6667
ชญ	-6668
ดง	-6669
Vol	-6670
ask	-6671
aya	-6672
ral	-6673
กติ	-6674
ชิต	-6675
ชิม	-6676
นวน	-6677
ปศุ	-6678
ลด์	-6679
วนา	-6680
เตย	-6681
โซล	-6682
Kore	-6683
Sing	-6684
ตะกร	-6685
นอร์	-6686
ย่าง	-6687
สุ่ม	-6688
หม้อ	-6689
เสรี	-6690
18<_>	-6691
19<_>	-6692
32<_>	-6693
Title	-6694
ister	-6695
ควิชา	-6696
มะนาว	-6697
สภาวะ	-6698
Please	-6699
กับทีม	-6700
งวดนี้	-6701
ซีซั่น	-6702
ติเมตร	-6703
ที่ว่า	-6704
ผูกพัน	-6705
ลูกชาย	-6706
ศรีนคร	-6707
หัวหิน	-6708
เกียร์	-6709
เนชั่น	-6710
เลี่ยง	-6711
แฟนบอล	-6712
Indones	-6713
Limited	-6714
ervices	-6715
ทางหลวง	-6716
ที่สนใจ	-6717
ประชาคม	-6718
ภาควิชา	-6719
อัพโหลด	-6720
เจ้าภาพ	-6721
เป็นของ	-6722
เพียงพอ	-6723
<_>22<_>	-6724
facebook	-6725
ขั้นต่ํา	-6726
พัฒนาการ	-6727
สาขาวิชา	-6728
เป็นปกติ	-6729
เพราะว่า	-6730
เมื่อวาน	-6731
และอาจมี	-6732
แอปพลิเค	-6733
<_>1-2<_>	-6734
ครุศาสตร์	-6735
คุณภาพสูง	-6736
ที่สวยงาม	-6737
ฟังก์ชั่น	-6738
รามอินทรา	-6739
ศูนย์กลาง	-6740
แชมเปี้ยน	-6741
หาวิทยาลัย	-6742
ได้เช่นกัน	-6743
มากยิ่งขึ้น	-6744
สระว่ายน้ํา	-6745
เกียรติบัตร	-6746
ซีรีย์เกาหลี	-6747
ผู้ให้บริการ	-6748
ประกาศผู้ชนะการ	-6749
หมายเลขโทรศัพท์	-6750
กระทรวงสาธารณสุข	-6751
55	-6752
Hu	-6753
IR	-6754
Ne	-6755
ei	-6756
ก๋	-6757
ิท	-6758
日本	-6759
NEW	-6760
ORT	-6761
TER	-6762
ana	-6763
ape	-6764
cel	-6765
elf	-6766
hot	-6767
how	-6768
ids	-6769
inu	-6770
pol	-6771
yar	-6772
กสิ	-6773
ขโม	-6774
คณา	-6775
จ่า	-6776
ชัก	-6777
ฝ่า	-6778
มพู	-6779
เตา	-6780
เปญ	-6781
แช่	-6782
แฟล	-6783
โจร	-6784
โหด	-6785
Free	-6786
Road	-6787
agon	-6788
less	-6789
ป้อม	-6790
ฝนตก	-6791
พิสู	-6792
มณฑล	-6793
มั้ย	-6794
เครน	-6795
เป่า	-6796
เว็ป	-6797
.8<_>	-6798
Brand	-6799
Store	-6800
ource	-6801
ตามมา	-6802
นนทรี	-6803
บางนา	-6804
วิกฤต	-6805
สันติ	-6806
เพลิด	-6807
และขอ	-6808
ใบไม้	-6809
ไปสู่	-6810
access	-6811
กันเลย	-6812
กุนซือ	-6813
ข้อต่อ	-6814
จะช่วย	-6815
ดีขึ้น	-6816
ที่อาจ	-6817
นี่คือ	-6818
พระนคร	-6819
ร้อยละ	-6820
อพาร์ท	-6821
เจอกัน	-6822
เท่าไร	-6823
เหนียว	-6824
และนัก	-6825
และใช้	-6826
<_>1999	-6827
Develop	-6828
ography	-6829
ก่อนที่	-6830
ของระบบ	-6831
ผิวหนัง	-6832
อยากให้	-6833
เหลี่ยม	-6834
โปแลนด์	-6835
ไปจนถึง	-6836
ไม่อยาก	-6837
7<_>:<_>	-6838
Continue	-6839
กิโลกรัม	-6840
ชิ้นส่วน	-6841
บัญชาการ	-6842
ปศุสัตว์	-6843
ยิ่งใหญ่	-6844
ลบข้อมูล	-6845
หัวตะพาน	-6846
ห้ามพลาด	-6847
เรียงจาก	-6848
และโฆษณา	-6849
Português	-6850
ขอบพระคุณ	-6851
คว้าแชมป์	-6852
ลืออํานาจ	-6853
เมนูอาหาร	-6854
เรื่องย่อ	-6855
และนโยบาย	-6856
ทางวิชาการ	-6857
รองชนะเลิศ	-6858
สติ๊กเกอร์	-6859
หากคุณเป็น	-6860
เปิดเผยว่า	-6861
เพลิดเพลิน	-6862
เรื่องเล่า	-6863
เลขทะเบียน	-6864
<_>10400<_>	-6865
Application	-6866
ความพึงพอใจ	-6867
ผู้เข้าร่วม	-6868
ติดต่อศูนย์ฯ	-6869
ราคาเริ่มต้น	-6870
อาคารพาณิชย์	-6871
มีความจําเป็น	-6872
เข้าถึงข้อมูล	-6873
แสดงความคิดเห็น	-6874
ภาคตะวันออกเฉียง	-6875
หลักการและเหตุผล	-6876
41	-6877
46	-6878
BR	-6879
df	-6880
จู	-6881
ัท	-6882
แฝ	-6883
Ant	-6884
Cap	-6885
Hor	-6886
Per	-6887
Ter	-6888
ict	-6889
mat	-6890
ota	-6891
set	-6892
คติ	-6893
ตีน	-6894
นุม	-6895
บวช	-6896
มีน	-6897
วดี	-6898
สตู	-6899
เฟ่	-6900
แผล	-6901
โบน	-6902
Call	-6903
Life	-6904
OTOP	-6905
Soft	-6906
Team	-6907
Your	-6908
appy	-6909
mark	-6910
oker	-6911
rent	-6912
vers	-6913
ขโมย	-6914
ดไทย	-6915
พลัด	-6916
สตูล	-6917
อลล์	-6918
ากัน	-6919
เกีย	-6920
เหลว	-6921
แปรง	-6922
.<_>(	-6923
;<_><	-6924
Anime	-6925
Color	-6926
Learn	-6927
Share	-6928
Watch	-6929
loven	-6930
จรรย์	-6931
ถูกใจ	-6932
ประปา	-6933
ปารีส	-6934
วิทย์	-6935
อยู่น	-6936
ในทาง	-6937
Author	-6938
Firefo	-6939
Health	-6940
Joomla	-6941
Server	-6942
คิดถึง	-6943
ค่าตัว	-6944
ชุมนุม	-6945
ตัวนี้	-6946
นีเซีย	-6947
ผ่าตัด	-6948
รณรงค์	-6949
ล้านนา	-6950
เราไม่	-6951
และรับ	-6952
ได้ถึง	-6953
ําหรับ	-6954
Project	-6955
กลางคืน	-6956
กลางวัน	-6957
ต่อต้าน	-6958
พิสูจน์	-6959
ล็อกอิน	-6960
วิธีทํา	-6961
ห่างจาก	-6962
เหนื่อย	-6963
และระบบ	-6964
ใกล้ชิด	-6965
.<_>.<_>	-6966
<_>31<_>	-6967
กว่าเดิม	-6968
ดับเพลิง	-6969
ตลอดทั้ง	-6970
ทีมเยือน	-6971
ปราบปราม	-6972
ภายในงาน	-6973
00,000<_>	-6974
><_>,<_><	-6975
ดูการ์ตูน	-6976
ตั้งครรภ์	-6977
ตามกฎหมาย	-6978
สะดวกสบาย	-6979
สามารถใช้	-6980
เรื่องที่	-6981
เหมือนกับ	-6982
ไม่มีส่วน	-6983
องค์ประกอบ	-6984
เป็นสมาชิก	-6985
แก้ไขปัญหา	-6986
ในเว็บไซต์	-6987
งานก่อสร้าง	-6988
รับสมัครงาน	-6989
สามารถเลือก	-6990
อินโดนีเซีย	-6991
เป็นหนึ่งใน	-6992
และเงื่อนไข	-6993
เป็นจํานวนมาก	-6994
เป็นส่วนหนึ่ง	-6995
และต่างประเทศ	-6996
ในการใช้บริการ	-6997
BA	-6998
OL	-6999
UD	-7000
ep	-7001
ev	-7002
ра	-7003
ус	-7004
ษก	-7005
ASE	-7006
Bro	-7007
Tür	-7008
car	-7009
lat	-7010
ody	-7011
oot	-7012
rib	-7013
ขุด	-7014
ซุง	-7015
บัส	-7016
พจน	-7017
สละ	-7018
สไป	-7019
อิฐ	-7020
าธิ	-7021
เษก	-7022
日本語	-7023
Prof	-7024
Türk	-7025
กะปิ	-7026
ก้อน	-7027
ทว่า	-7028
ปริศ	-7029
พ่าย	-7030
ริยะ	-7031
สลัก	-7032
อาชญ	-7033
อ้วน	-7034
ักษา	-7035
15<_>	-7036
Green	-7037
Nokia	-7038
ality	-7039
dress	-7040
กร้อง	-7041
บล็อค	-7042
ปินส์	-7043
พระยา	-7044
ฟิลิป	-7045
มิลลิ	-7046
มิลาน	-7047
สกอร์	-7048
สบายๆ	-7049
สร้อย	-7050
เกียว	-7051
เบิ้ล	-7052
ไปอีก	-7053
Search	-7054
ข้อมือ	-7055
ต้นทุน	-7056
ที่ยอด	-7057
บางกอก	-7058
บุหรี่	-7059
ลึกลับ	-7060
วินาที	-7061
สวีเดน	-7062
หรือดู	-7063
แจ้งลบ	-7064
College	-7065
Cookies	-7066
Science	-7067
กันน้ํา	-7068
ชายฝั่ง	-7069
ที่ช่วย	-7070
น้ําหอม	-7071
ผลลัพธ์	-7072
หลักสี่	-7073
เกิดจาก	-7074
เด็กและ	-7075
แม่นยํา	-7076
แม่บ้าน	-7077
ด้วยระบบ	-7078
ด้านหน้า	-7079
นักลงทุน	-7080
ระดับสูง	-7081
เนื้อที่	-7082
แต่อย่าง	-7083
ในการจัด	-7084
ไปเที่ยว	-7085
ขึ้นเพื่อ	-7086
ปลูกสร้าง	-7087
พจนานุกรม	-7088
รับบริการ	-7089
สําหรับคน	-7090
อย่างน้อย	-7091
แจ้งวัฒนะ	-7092
ได้ทําการ	-7093
ดูแลสุขภาพ	-7094
บนเว็บไซต์	-7095
ผู้ที่สนใจ	-7096
ครบระยะเวลา	-7097
ติดตั้งระบบ	-7098
บัญชีผู้ใช้	-7099
ราชอาณาจักร	-7100
อเนกประสงค์	-7101
ดําเนินธุรกิจ	-7102
เข้ารับราชการ	-7103
แผนผังเว็บไซต์	-7104
ความเป็นส่วนตัว	-7105
กรรมการผู้จัดการ	-7106
กรุณาเข้าสู่ระบบ	-7107
77	-7108
mo	-7109
ка	-7110
คต	-7111
นู	-7112
Add	-7113
Cro	-7114
ISO	-7115
Ned	-7116
ats	-7117
leg	-7118
ฆาต	-7119
ช่อ	-7120
ดุล	-7121
ทัด	-7122
ทาว	-7123
นิส	-7124
บิล	-7125
บี้	-7126
ลิน	-7127
ศัล	-7128
อัก	-7129
แมง	-7130
แอม	-7131
โซ่	-7132
โล่	-7133
Data	-7134
Know	-7135
Page	-7136
have	-7137
slot	-7138
tech	-7139
will	-7140
คุ้น	-7141
ปลวก	-7142
ผลัก	-7143
พลิก	-7144
รัตน	-7145
สาคร	-7146
อัคร	-7147
ูกระ	-7148
เสริ	-7149
แค่น	-7150
่ารถ	-7151
-8<_>	-7152
-<_><	-7153
<_>35	-7154
กติกา	-7155
กระทู	-7156
ต้าร์	-7157
พบกัน	-7158
มีข้อ	-7159
สรรหา	-7160
ส์ลีก	-7161
เซนต์	-7162
เพียบ	-7163
โกดัง	-7164
<_>===	-7165
Action	-7166
Review	-7167
Travel	-7168
กเกอร์	-7169
ครบทุก	-7170
ผู้แทน	-7171
ภาพที่	-7172
รถเก๋ง	-7173
สาวสวย	-7174
แคมเปญ	-7175
แรงดัน	-7176
โอลิมป	-7177
ไม่แพ้	-7178
,<_>201	-7179
erlands	-7180
ขั้นที่	-7181
ตรวจจับ	-7182
ผสมผสาน	-7183
มอบหมาย	-7184
ระยะทาง	-7185
รับดูแล	-7186
สุขภาวะ	-7187
และต้อง	-7188
<_>36<_>	-7189
การเลือก	-7190
ความถนัด	-7191
นั้นเป็น	-7192
น้ําแข็ง	-7193
พันธมิตร	-7194
ภาคเรียน	-7195
เพลงใหม่	-7196
▁Powered	-7197
<_>300<_>	-7198
จึงทําให้	-7199
ทางทีมงาน	-7200
ที่จะต้อง	-7201
บันทึกไว้	-7202
หลักเกณฑ์	-7203
ในโครงการ	-7204
ความเข้าใจ	-7205
ที่ชื่นชอบ	-7206
ทําการปรับ	-7207
สํานักข่าว	-7208
<_>1,000<_>	-7209
ทุนการศึกษา	-7210
มนุษยศาสตร์	-7211
ศูนย์ข้อมูล	-7212
หมายความว่า	-7213
เครื่องเสียง	-7214
วิจัยและพัฒนา	-7215
โครงการก่อสร้าง	-7216
48	-7217
Bi	-7218
FE	-7219
Om	-7220
Pe	-7221
ผ่	-7222
ฟอ	-7223
ไห	-7224
็ญ	-7225
한국	-7226
345	-7227
678	-7228
Job	-7229
PRO	-7230
Red	-7231
ier	-7232
irt	-7233
son	-7234
ซาน	-7235
ทิพ	-7236
าสม	-7237
ียู	-7238
เดท	-7239
แพค	-7240
แลน	-7241
แห่	-7242
Best	-7243
Educ	-7244
Food	-7245
emon	-7246
itor	-7247
ский	-7248
ช้อน	-7249
บ่าย	-7250
ภาระ	-7251
ยุ่ง	-7252
สนิท	-7253
สยอง	-7254
เปีย	-7255
ไชส์	-7256
-2<_>	-7257
Award	-7258
Motor	-7259
บรรดา	-7260
สายตา	-7261
หอพัก	-7262
เบนซ์	-7263
เออร์	-7264
เอาใจ	-7265
▁-<_>	-7266
усский	-7267
กระบอก	-7268
กันเอง	-7269
จ่าฝูง	-7270
ชี้แจง	-7271
ตระกูล	-7272
ถ้าหาก	-7273
ทองแดง	-7274
ศักราช	-7275
ออฟฟิศ	-7276
เฝ้าระ	-7277
เสิร์ฟ	-7278
เสียใจ	-7279
ไม่รวม	-7280
ําน้ํา	-7281
Company	-7282
Español	-7283
product	-7284
ชั้นวาง	-7285
ถึงบ้าน	-7286
มหาดไทย	-7287
วางระบบ	-7288
ักเรียน	-7289
เยอรมนี	-7290
<_>1.<_>	-7291
password	-7292
การเขียน	-7293
ดูเหมือน	-7294
น้ําดื่ม	-7295
ศาสนสถาน	-7296
หนังใหม่	-7297
อินทรีย์	-7298
เมืองทอง	-7299
เลือกสรร	-7300
แผนพัฒนา	-7301
กฎหมายและ	-7302
ติดต่อกัน	-7303
รับปริญญา	-7304
เซนติเมตร	-7305
เฝ้าระวัง	-7306
เรียงชื่อ	-7307
เสี่ยงโชค	-7308
<_>2558<_>	-7309
จุฬาลงกรณ์	-7310
ฟิลิปปินส์	-7311
สมบูรณ์แบบ	-7312
สุวรรณภูมิ	-7313
ราคาประหยัด	-7314
องค์ความรู้	-7315
แหล่งข้อมูล	-7316
ของพรีเมี่ยม	-7317
ตรวจสอบภายใน	-7318
ออนไลน์ที่มี	-7319
ได้รับความสนใจ	-7320
สําเร็จการศึกษา	-7321
เครื่องปรับอากาศ	-7322
เฉลิมพระชนมพรรษา	-7323
และอาจมีเงื่อนไข	-7324
39	-7325
Hz	-7326
yl	-7327
çe	-7328
ην	-7329
ικ	-7330
λλ	-7331
сь	-7332
-17	-7333
Det	-7334
Est	-7335
Reg	-7336
Top	-7337
ama	-7338
mal	-7339
tag	-7340
ικά	-7341
ขี้	-7342
ข่า	-7343
ชิญ	-7344
บลู	-7345
พิก	-7346
พีช	-7347
ริน	-7348
วิญ	-7349
ะคะ	-7350
าคา	-7351
เวท	-7352
แฮม	-7353
โศก	-7354
ไผ่	-7355
High	-7356
King	-7357
Park	-7358
View	-7359
amil	-7360
atic	-7361
ents	-7362
inic	-7363
λλην	-7364
ธรณี	-7365
ปตัน	-7366
ป้อน	-7367
อิ่ม	-7368
เบีย	-7369
แฟลช	-7370
โบสถ	-7371
▁งาน	-7372
22<_>	-7373
49<_>	-7374
77<_>	-7375
Hotel	-7376
Media	-7377
share	-7378
กัมพู	-7379
คริสต	-7380
มาใช้	-7381
อาชีว	-7382
เสวนา	-7383
และก็	-7384
แอปเป	-7385
โบนัส	-7386
ในแบบ	-7387
ใหม่อ	-7388
ให้ดู	-7389
<_>038	-7390
<_>044	-7391
Camera	-7392
Türkçe	-7393
antasy	-7394
keting	-7395
venska	-7396
ที่สาม	-7397
พ่อแม่	-7398
ภูมิใจ	-7399
อธิบดี	-7400
ในอดีต	-7401
Subject	-7402
account	-7403
λληνικά	-7404
กีต้าร์	-7405
ผิวหน้า	-7406
หรือการ	-7407
เปเปอร์	-7408
▁Amarin	-7409
คณาจารย์	-7410
คล้ายวัน	-7411
บางอย่าง	-7412
ปริญญาโท	-7413
หน้าต่าง	-7414
แฟรนไชส์	-7415
ในที่สุด	-7416
ในรายการ	-7417
การทุจริต	-7418
เที่ยวบิน	-7419
และมีความ	-7420
Nederlands	-7421
ทะเบียนและ	-7422
ทุกจังหวัด	-7423
สําหรับงาน	-7424
อาคารศูนย์	-7425
<_>2,000<_>	-7426
<_>5,000<_>	-7427
<_>©<_>1999	-7428
Information	-7429
กระดานสนทนา	-7430
ด้านล่างนี้	-7431
เรียนการสอน	-7432
ได้ในขณะนี้	-7433
<_>10,000<_>	-7434
ที่อยู่อาศัย	-7435
อย่างยั่งยืน	-7436
การดําเนินงาน	-7437
ความช่วยเหลือ	-7438
คุณธรรมและความ	-7439
สินค้าและบริการ	-7440
หมวดหมู่ทั้งหมด	-7441
สํานักวิทยบริการ	-7442
4=	-7443
6=	-7444
Ag	-7445
Di	-7446
IK	-7447
Jo	-7448
NG	-7449
RI	-7450
RS	-7451
UE	-7452
br	-7453
ze	-7454
ผอ	-7455
มม	-7456
▁S	-7457
715	-7458
Act	-7459
FAQ	-7460
Lab	-7461
Sal	-7462
fil	-7463
ตุร	-7464
ทช์	-7465
ธีม	-7466
นวล	-7467
นิก	-7468
ปาล	-7469
มีย	-7470
ศรั	-7471
ศาจ	-7472
สัด	-7473
อดี	-7474
อบจ	-7475
ออฟ	-7476
เจร	-7477
เนม	-7478
โหว	-7479
ไพ่	-7480
한국어	-7481
<_>→	-7482
Blue	-7483
ally	-7484
ates	-7485
miss	-7486
uter	-7487
ครัน	-7488
ถล่ม	-7489
ทวีป	-7490
ทะลุ	-7491
ลิตร	-7492
หมอก	-7493
ฮอล์	-7494
เซ็ต	-7495
เบ็ด	-7496
ไปดู	-7497
78<_>	-7498
Categ	-7499
Inter	-7500
Space	-7501
Video	-7502
price	-7503
กันไป	-7504
น้องๆ	-7505
ยธรรม	-7506
ลดการ	-7507
วันละ	-7508
หารือ	-7509
อุบาส	-7510
ฮาร์ด	-7511
ังการ	-7512
เผชิญ	-7513
เวลาส	-7514
โลหิต	-7515
===<_>	-7516
Engine	-7517
ession	-7518
please	-7519
ขัดต่อ	-7520
คืนนี้	-7521
พิบัติ	-7522
ฟื้นฟู	-7523
มหกรรม	-7524
มากนัก	-7525
มาใหม่	-7526
ศจรรย์	-7527
สวมใส่	-7528
แปรรูป	-7529
แปลไทย	-7530
และข้อ	-7531
ได้โดย	-7532
ไว้ให้	-7533
<_>2017	-7534
Edition	-7535
Fantasy	-7536
ครบครัน	-7537
คู่แข่ง	-7538
คําร้อง	-7539
จึงต้อง	-7540
ซูเปอร์	-7541
ทางเข้า	-7542
ที่ร้าน	-7543
นักกีฬา	-7544
ประชากร	-7545
ลูกทุ่ง	-7546
ออเดอร์	-7547
อาบน้ํา	-7548
านิพนธ์	-7549
เข้ากัน	-7550
เฟซบุ๊ก	-7551
แล้วยัง	-7552
ใบสมัคร	-7553
ใหม่ที่	-7554
▁สวัสดี	-7555
<_>1)<_>	-7556
ข้างล่าง	-7557
คําศัพท์	-7558
ดูอนิเมะ	-7559
ตั๋วบัตร	-7560
ทางปัญญา	-7561
ที่พร้อม	-7562
ร้องเพลง	-7563
วันเสาร์	-7564
สอดคล้อง	-7565
เดินหน้า	-7566
เป็นเวลา	-7567
เมื่อคุณ	-7568
แถลงข่าว	-7569
ใบอนุญาต	-7570
ได้ง่ายๆ	-7571
ไม่ได้มี	-7572
▁โครงการ	-7573
<_>120<_>	-7574
<_>150<_>	-7575
หากพบเห็น	-7576
อันดับที่	-7577
เพื่อช่วย	-7578
เรียกร้อง	-7579
เรียบง่าย	-7580
และข้อมูล	-7581
ไม่ยินยอม	-7582
การสื่อสาร	-7583
ที่ทันสมัย	-7584
ส่วนราชการ	-7585
เป็นบริการ	-7586
ได้ว่าเป็น	-7587
กรุณาติดต่อ	-7588
รัฐวิสาหกิจ	-7589
การจองของคุณ	-7590
บริการลูกค้า	-7591
เครื่องพิมพ์	-7592
หลากหลายและดี	-7593
วิศวกรรมศาสตร์	-7594
จดทะเบียนบริษัท	-7595
ตะวันออกเฉียงใต้	-7596
BM	-7597
FL	-7598
Fr	-7599
MC	-7600
SD	-7601
TU	-7602
Wi	-7603
ka	-7604
ар	-7605
їн	-7606
ชช	-7607
ปภ	-7608
์ว	-7609
Ben	-7610
Fan	-7611
Glo	-7612
How	-7613
MAX	-7614
Map	-7615
Wel	-7616
bit	-7617
hum	-7618
mag	-7619
pur	-7620
uri	-7621
кра	-7622
ดิบ	-7623
ถอย	-7624
ทะล	-7625
บูธ	-7626
ปู่	-7627
ปไต	-7628
มอก	-7629
มัส	-7630
วิส	-7631
หัด	-7632
โพด	-7633
โร่	-7634
ไทร	-7635
Sony	-7636
aint	-7637
iger	-7638
ized	-7639
lean	-7640
ська	-7641
ข้าพ	-7642
คนใน	-7643
จะไป	-7644
ซึ้ง	-7645
ปริม	-7646
ปไตย	-7647
พายุ	-7648
มือน	-7649
ลงมา	-7650
วุ่น	-7651
สเปค	-7652
อยด์	-7653
อ้อม	-7654
เดย์	-7655
่มาก	-7656
▁รับ	-7657
79<_>	-7658
Ultra	-7659
exper	-7660
країн	-7661
ตุรกี	-7662
ปีศาจ	-7663
ภิเษก	-7664
มักจะ	-7665
รับบท	-7666
เด็กๆ	-7667
เรียล	-7668
แกล้ง	-7669
โจมตี	-7670
ไม่ดี	-7671
record	-7672
ทั้งใน	-7673
บราซิล	-7674
ยอดฮิต	-7675
รถใหม่	-7676
รวมตัว	-7677
สีชมพู	-7678
สูงถึง	-7679
อนุบาล	-7680
าสามัญ	-7681
เกมที่	-7682
เสมือน	-7683
แค่ไหน	-7684
แทนที่	-7685
แบบไหน	-7686
ในเว็บ	-7687
<_>2019	-7688
<_>;<_>	-7689
ascript	-7690
browser	-7691
unction	-7692
กองหน้า	-7693
ข้าวโพด	-7694
จากความ	-7695
พอเพียง	-7696
พื้นผิว	-7697
มอบเงิน	-7698
ระยะที่	-7699
ศีลธรรม	-7700
สิ่งของ	-7701
ในปีนี้	-7702
<_>29<_>	-7703
Ελληνικά	-7704
ผ่านระบบ	-7705
เป็นสิ่ง	-7706
ไม่มีการ	-7707
країнська	-7708
กลั่นกรอง	-7709
ประจําตัว	-7710
ฤดูกาลนี้	-7711
วิชาสามัญ	-7712
เมื่อเวลา	-7713
ในระหว่าง	-7714
<_>2023<_>	-7715
กรุณาเลือก	-7716
กํากับดูแล	-7717
ของจังหวัด	-7718
ความมั่นคง	-7719
ช่วยให้คุณ	-7720
ทางการเงิน	-7721
ประเภทนี้จะ	-7722
ผู้ดูแลระบบ	-7723
วิทยานิพนธ์	-7724
สอบคัดเลือก	-7725
สําหรับกรณี	-7726
อันดับหนึ่ง	-7727
เนื่องในวัน	-7728
ให้นักศึกษา	-7729
บริการจัดส่ง	-7730
ดํารงตําแหน่ง	-7731
เบอร์โทรศัพท์	-7732
กระทรวงมหาดไทย	-7733
ดูละครย้อนหลัง	-7734
รายละเอียดการจอง	-7735
สําหรับการทํางาน	-7736
BN	-7737
XY	-7738
yp	-7739
ฎก	-7740
รฟ	-7741
ệt	-7742
Cry	-7743
SET	-7744
Tiế	-7745
ato	-7746
axi	-7747
eck	-7748
ger	-7749
has	-7750
ips	-7751
uki	-7752
กวน	-7753
กาว	-7754
ครา	-7755
ตัส	-7756
ทาร	-7757
น่ะ	-7758
บาก	-7759
บาร	-7760
บ้า	-7761
ฝัง	-7762
พลา	-7763
ฟัก	-7764
มิด	-7765
ลิฟ	-7766
อริ	-7767
ิตร	-7768
เซต	-7769
เดช	-7770
เดส	-7771
แคน	-7772
แซ่	-7773
แนก	-7774
City	-7775
MRBS	-7776
Việt	-7777
come	-7778
ival	-7779
ours	-7780
tect	-7781
ults	-7782
·<_>	-7783
คงจะ	-7784
คิ้ว	-7785
ช็อป	-7786
ดมิน	-7787
ตลับ	-7788
ทัศน	-7789
ปราศ	-7790
ปิฎก	-7791
ปุ๋ย	-7792
พุ่ง	-7793
ม่ํา	-7794
รื่น	-7795
รุ่ง	-7796
ร่วง	-7797
สถาป	-7798
หยอด	-7799
หลาด	-7800
หลุม	-7801
เคิล	-7802
เถอะ	-7803
เพ็ญ	-7804
28<_>	-7805
42<_>	-7806
84<_>	-7807
85<_>	-7808
<_>65	-7809
Tiếng	-7810
cture	-7811
light	-7812
ดิฉัน	-7813
ถ้ามี	-7814
มาแรง	-7815
ราษฎร	-7816
วินัย	-7817
สีเทา	-7818
หน่ํา	-7819
เบื่อ	-7820
เอาไป	-7821
”<_>(	-7822
Chiang	-7823
eature	-7824
number	-7825
การวัด	-7826
ครีมทา	-7827
คาดว่า	-7828
จับมือ	-7829
จากทาง	-7830
จําลอง	-7831
จําแนก	-7832
ด้วยนะ	-7833
ที่ทาง	-7834
นักสืบ	-7835
ปัญหาส	-7836
พระไตร	-7837
มากว่า	-7838
วิญญาณ	-7839
สารบัญ	-7840
สุทธิ์	-7841
สําเนา	-7842
ฮอนด้า	-7843
าระดับ	-7844
แบดมิน	-7845
และส่ง	-7846
โดยผู้	-7847
ference	-7848
ดูดฝุ่น	-7849
ตีพิมพ์	-7850
ท่าเรือ	-7851
ราคาสูง	-7852
รูปร่าง	-7853
สุดคุ้ม	-7854
หลักการ	-7855
เข้ารอบ	-7856
แห่งการ	-7857
ไม่ผ่าน	-7858
ไม่เสีย	-7859
<_>35<_>	-7860
><_>2<_>	-7861
กล่าวถึง	-7862
การทดสอบ	-7863
ข้าพเจ้า	-7864
จ่ายเงิน	-7865
ทาวเวอร์	-7866
ศัลยกรรม	-7867
การจองได้	-7868
การประกวด	-7869
ทะเบียนรถ	-7870
ที่กําหนด	-7871
บาอาจารย์	-7872
ภัยพิบัติ	-7873
เซ็นเตอร์	-7874
เป็นพิเศษ	-7875
แน่นอนว่า	-7876
แบดมินตัน	-7877
งานแต่งงาน	-7878
ตั้งแต่วัน	-7879
ทําให้เกิด	-7880
รับดูแลเพจ	-7881
ลงโฆษณาฟรี	-7882
สิทธิพิเศษ	-7883
เป็นประจํา	-7884
ได้อย่างไร	-7885
ตกแต่งภายใน	-7886
ประโยชน์ต่อ	-7887
เจ้าพนักงาน	-7888
ให้ความสนใจ	-7889
ตรวจสอบบัญชี	-7890
พระพุทธศาสนา	-7891
องค์กรปกครอง	-7892
ดาวน์โหลดเพลง	-7893
ทําการปรับรุ่น	-7894
ปรับปรุงล่าสุด	-7895
เครือข่ายนนทรี	-7896
และการลบข้อมูล	-7897
▁เว็บเบราเซอร์	-7898
ของคุณไม่รองรับ	-7899
ปิดการทํางานของ	-7900
เฉพาะบุคลากรของ	-7901
แหล่งท่องเที่ยว	-7902
รายการการจองนั้น	-7903
หรือดูรายงานสรุป	-7904
เฉพาะเจ้าหน้าที่	-7905
29	-7906
El	-7907
GR	-7908
OD	-7909
SA	-7910
fr	-7911
ga	-7912
คห	-7913
ทศ	-7914
ผิ	-7915
๊ย	-7916
Ang	-7917
ada	-7918
col	-7919
ena	-7920
iet	-7921
nov	-7922
sub	-7923
uss	-7924
กศน	-7925
ปาน	-7926
ฝ้า	-7927
พิน	-7928
มณี	-7929
ลุก	-7930
วาล	-7931
สาด	-7932
สาบ	-7933
ห่ม	-7934
เสบ	-7935
แคร	-7936
แนล	-7937
แร่	-7938
โกล	-7939
โด้	-7940
โตร	-7941
โยน	-7942
-102	-7943
Dist	-7944
Time	-7945
Wall	-7946
awei	-7947
irst	-7948
ream	-7949
ular	-7950
กระป	-7951
คนละ	-7952
พาเล	-7953
มามี	-7954
มื้อ	-7955
ฤกษ์	-7956
สาวก	-7957
เดรส	-7958
เบาๆ	-7959
เฝ้า	-7960
เล็ง	-7961
แขวน	-7962
ไม้อ	-7963
●<_>	-7964
31<_>	-7965
89<_>	-7966
Cloud	-7967
Happy	-7968
Japan	-7969
Login	-7970
ering	-7971
ified	-7972
กสิกร	-7973
ข้อดี	-7974
น้ําร	-7975
บันได	-7976
บางที	-7977
บูรณา	-7978
ผลรวม	-7979
มาร์ก	-7980
มาร์ค	-7981
ละลาย	-7982
ศรัทธ	-7983
สมดุล	-7984
ูปแบบ	-7985
เลียง	-7986
โพธิ์	-7987
โรแมน	-7988
ได้มา	-7989
ไม่มา	-7990
allery	-7991
คําสอน	-7992
ฉะนั้น	-7993
ชั้นใน	-7994
น้ําตก	-7995
พิกเซล	-7996
มาเล่น	-7997
ลูกสาว	-7998
วงเงิน	-7999
สเปรย์	-8000
แผนงาน	-8001
โดยรวม	-8002
ได้ยิน	-8003
ไม่ทัน	-8004
<_>2561	-8005
ตระหนัก	-8006
ทําซ้ํา	-8007
ธัญบุรี	-8008
บทเรียน	-8009
มือใหม่	-8010
สัดส่วน	-8011
แล้วแต่	-8012
<_>!!<_>	-8013
กลางแจ้ง	-8014
กลิ่นหอม	-8015
ของกลุ่ม	-8016
ดอกเบี้ย	-8017
ทางสังคม	-8018
นักวิจัย	-8019
มาสเตอร์	-8020
ระดับโลก	-8021
สนามกีฬา	-8022
สไปเดอร์	-8023
ห้วยขวาง	-8024
เปิดบ้าน	-8025
แบนเนอร์	-8026
และเสียง	-8027
โอลิมปิก	-8028
ในวันที่	-8029
Education	-8030
การบริการ	-8031
คุยเรื่อง	-8032
ตารางเมตร	-8033
ทางบริษัท	-8034
ที่ประเทศ	-8035
ผู้บริโภค	-8036
ยังไม่ได้	-8037
ในส่วนของ	-8038
<_>2013<_>	-8039
Collection	-8040
ธรรมศาสตร์	-8041
ผลประโยชน์	-8042
พระไตรปิฎก	-8043
ว่าด้วยการ	-8044
เพื่อที่จะ	-8045
ในตําแหน่ง	-8046
กลุ่มสินค้า	-8047
ผู้ประสบภัย	-8048
ภาคตะวันออก	-8049
ให้คําแนะนํา	-8050
ที่แตกต่างกัน	-8051
ประโยชน์ในการ	-8052
เพื่อการศึกษา	-8053
ห้องปฏิบัติการ	-8054
เราจะไม่สามารถ	-8055
ของครูบาอาจารย์	-8056
ที่มีประสบการณ์	-8057
ประเภทของคุกกี้	-8058
ได้อย่างเป็นปกติ	-8059
.9	-8060
06	-8061
28	-8062
CL	-8063
Us	-8064
uc	-8065
ال	-8066
ทฤ	-8067
๊ต	-8068
▁D	-8069
FOR	-8070
ICE	-8071
MIT	-8072
Rem	-8073
Sur	-8074
dom	-8075
ešt	-8076
pan	-8077
ume	-8078
กัส	-8079
งับ	-8080
จิก	-8081
ซัพ	-8082
ดาร	-8083
ตอก	-8084
นิค	-8085
ปรก	-8086
มืด	-8087
หมา	-8088
เจด	-8089
โคม	-8090
็กซ	-8091
๊อป	-8092
<_>•	-8093
Buil	-8094
Hand	-8095
ness	-8096
ooth	-8097
vert	-8098
กิติ	-8099
คาถา	-8100
ซิ่ง	-8101
ฟู้ด	-8102
มากร	-8103
สามี	-8104
เจ๋ง	-8105
เบิล	-8106
เว่น	-8107
โค้ง	-8108
ไทม์	-8109
13<_>	-8110
36<_>	-8111
:<_>0	-8112
<_>36	-8113
Start	-8114
ledge	-8115
other	-8116
คณบดี	-8117
จะให้	-8118
ทุกปี	-8119
พรุ่ง	-8120
ภิบาล	-8121
เอามา	-8122
แต่มี	-8123
แฟนตา	-8124
และจะ	-8125
ไปทาง	-8126
▁คลิก	-8127
715-29	-8128
<_>101	-8129
Pinkoi	-8130
Select	-8131
กอฮอล์	-8132
กัปตัน	-8133
ของตัว	-8134
ของภาค	-8135
ซัมซุง	-8136
ทรงจํา	-8137
ปริศนา	-8138
มากถึง	-8139
ยังได้	-8140
รอบรู้	-8141
หวยลาว	-8142
หอสมุด	-8143
ออมสิน	-8144
เปลือก	-8145
เวิลด์	-8146
ให้ใช้	-8147
...<_><	-8148
กัมพูชา	-8149
ตลาดนัด	-8150
ตามหลัก	-8151
ถึงเวลา	-8152
ทางเดิน	-8153
ปฎิบัติ	-8154
ประชาธิ	-8155
ประหลาด	-8156
ร่วมทีม	-8157
ลูกเสือ	-8158
สูงกว่า	-8159
หวังว่า	-8160
อย่างดี	-8161
เท่ากัน	-8162
เปิดงาน	-8163
เพื่อขอ	-8164
แต่งกาย	-8165
ในทันที	-8166
ในสังคม	-8167
ไฟเบอร์	-8168
▁แนะนํา	-8169
กระหน่ํา	-8170
ครอบครอง	-8171
คลิปดารา	-8172
จริยธรรม	-8173
ประกาศผล	-8174
เด็กเล็ก	-8175
เมื่อคืน	-8176
แม่เหล็ก	-8177
กรณีศึกษา	-8178
ของผู้ใช้	-8179
งานราชการ	-8180
ที่จะช่วย	-8181
ผู้โดยสาร	-8182
สร้างบ้าน	-8183
สิทธิบัตร	-8184
สิ่งพิมพ์	-8185
ในการผลิต	-8186
-102715-29	-8187
จังหวัดเลย	-8188
ที่ถูกต้อง	-8189
ทํากิจกรรม	-8190
พระราชพิธี	-8191
พุทธศักราช	-8192
ภาพกิจกรรม	-8193
สร้างบัญชี	-8194
<_>-<_>-<_>	-8195
ความบันเทิง	-8196
ปรับเปลี่ยน	-8197
สนใจลงโฆษณา	-8198
สไปเดอร์แมน	-8199
เว็บไซต์ได้	-8200
คณะครุศาสตร์	-8201
อุปกรณ์เสริม	-8202
กองทะเบียนและ	-8203
คุกกี้นี้ในระบบ	-8204
<_>038-102715-29	-8205
ทรัพยากรธรรมชาติ	-8206
ประมวลผลการศึกษา	-8207
FF	-8208
FU	-8209
PV	-8210
SK	-8211
SO	-8212
UZ	-8213
ta	-8214
คบ	-8215
บด	-8216
บ่	-8217
้ต	-8218
๑๐	-8219
GMT	-8220
Lib	-8221
Mal	-8222
Par	-8223
USA	-8224
add	-8225
ugh	-8226
vie	-8227
กรด	-8228
กษา	-8229
อลิ	-8230
อาส	-8231
ัตน	-8232
ื้ม	-8233
เทล	-8234
เวบ	-8235
แกง	-8236
แกะ	-8237
โกน	-8238
โสด	-8239
Arch	-8240
atal	-8241
ives	-8242
size	-8243
ชะตา	-8244
ดีใจ	-8245
ทุกล	-8246
นิ่ง	-8247
ยั้ง	-8248
ระดม	-8249
รั่ม	-8250
ริ้ว	-8251
ศิริ	-8252
สลาม	-8253
อุตุ	-8254
อ้าย	-8255
เช็ก	-8256
เทวี	-8257
่าจะ	-8258
.9<_>	-8259
0%<_>	-8260
24<_>	-8261
:<_>:	-8262
Cream	-8263
House	-8264
Intel	-8265
paper	-8266
คอลลา	-8267
ทธิพล	-8268
บนโลก	-8269
บรรลุ	-8270
บ่อยๆ	-8271
มิได้	-8272
ลงโทษ	-8273
สหภาพ	-8274
หาราช	-8275
อมรับ	-8276
ักษณ์	-8277
แฟกซ์	-8278
โดนใจ	-8279
โดยจะ	-8280
ในขณะ	-8281
ไอรอน	-8282
▁©<_>	-8283
120<_>	-8284
Studio	-8285
คุกคาม	-8286
ตกเป็น	-8287
ตัดต่อ	-8288
ทีเรีย	-8289
ทําจาก	-8290
นางเอก	-8291
นําทีม	-8292
พระบาท	-8293
พีเดีย	-8294
ลวดลาย	-8295
เขาได้	-8296
เจดีย์	-8297
เที่ยง	-8298
แจกฟรี	-8299
แต่การ	-8300
ไร้สาย	-8301
<_>●<_>	-8302
Account	-8303
Product	-8304
กรณีที่	-8305
ก่อนใคร	-8306
ความฝัน	-8307
ความยาว	-8308
ซับซ้อน	-8309
ต้องใช้	-8310
ทุกรุ่น	-8311
นี้อยู่	-8312
ปริมณฑล	-8313
ผิดหวัง	-8314
สตูดิโอ	-8315
แฟนตาซี	-8316
แล้วว่า	-8317
<_>75<_>	-8318
Français	-8319
ดีที่สุด	-8320
ด้านหลัง	-8321
ที่เดียว	-8322
นําไปใช้	-8323
พวงกุญแจ	-8324
ราวเซอร์	-8325
ลงข้อมูล	-8326
เทียบกับ	-8327
ไอรอนแมน	-8328
กระทู้นี้	-8329
คําบรรยาย	-8330
ตําบลบ้าน	-8331
ภูมิปัญญา	-8332
รวมถึงการ	-8333
สมาชิกสภา	-8334
สมุทรสาคร	-8335
อาชญากรรม	-8336
เจ้าพระยา	-8337
เหล่านั้น	-8338
แอลกอฮอล์	-8339
ให้คุณได้	-8340
กรรมศาสตร์	-8341
ซื้อสินค้า	-8342
ด้วยตัวเอง	-8343
ตกแต่งบ้าน	-8344
ตั้งกระทู้	-8345
นักวิชาการ	-8346
บรรจุภัณฑ์	-8347
พร้อมที่จะ	-8348
วิกิพีเดีย	-8349
สถานีวิทยุ	-8350
ส่งผลกระทบ	-8351
เกิดจากการ	-8352
เบื้องหลัง	-8353
ไวรัสโควิด	-8354
คะแนนเฉลี่ย	-8355
คุณภาพชีวิต	-8356
ดังต่อไปนี้	-8357
ตําแหน่งงาน	-8358
มากที่สุดใน	-8359
เครื่องเล่น	-8360
เนื่องมาจาก	-8361
เว็บไซต์ของ	-8362
แสดงทั้งหมด	-8363
เทคโนโลยีการ	-8364
เรียนออนไลน์	-8365
ทําความเข้าใจ	-8366
ปฏิบัติราชการ	-8367
รถจักรยานยนต์	-8368
▁ยินดีต้อนรับ	-8369
ในการกลั่นกรอง	-8370
โปรดเข้าสู่ระบบ	-8371
ในชีวิตประจําวัน	-8372
87	-8373
FC	-8374
HO	-8375
LG	-8376
Sn	-8377
au	-8378
fa	-8379
ys	-8380
จก	-8381
ชั	-8382
นุ	-8383
ฮิ	-8384
ุณ	-8385
แง	-8386
ANG	-8387
CON	-8388
EMS	-8389
Ear	-8390
Nak	-8391
Our	-8392
UZU	-8393
hon	-8394
ios	-8395
meb	-8396
val	-8397
vit	-8398
คาส	-8399
จ๊ะ	-8400
ชาน	-8401
ตอง	-8402
ถัก	-8403
ถัม	-8404
ทัก	-8405
บัล	-8406
พรบ	-8407
ภิก	-8408
มรด	-8409
มหั	-8410
มุส	-8411
ลัก	-8412
สอย	-8413
สุก	-8414
เงา	-8415
แตง	-8416
ไอ้	-8417
▁มี	-8418
-202	-8419
ARIP	-8420
Cafe	-8421
Core	-8422
Lead	-8423
With	-8424
adem	-8425
ages	-8426
ears	-8427
item	-8428
list	-8429
spec	-8430
ขยับ	-8431
พราน	-8432
ริ่ง	-8433
หลีก	-8434
ออร์	-8435
เด้ง	-8436
เห็ด	-8437
โน้ต	-8438
โบว์	-8439
—<_>	-8440
▁รวม	-8441
)<_>7	-8442
,<_>0	-8443
--<_>	-8444
12345	-8445
Flash	-8446
Gener	-8447
aking	-8448
sport	-8449
กราฟฟ	-8450
ควรจะ	-8451
จัดหา	-8452
ชมกัน	-8453
ถัมภ์	-8454
นะค่ะ	-8455
ปลื้ม	-8456
ลงนาม	-8457
สม่ํา	-8458
หร่าน	-8459
าร่วม	-8460
เมียน	-8461
เรามา	-8462
แน่ใจ	-8463
ไพรส์	-8464
-10<_>	-8465
Clinic	-8466
eština	-8467
กายภาพ	-8468
ของชาว	-8469
ชีวภาพ	-8470
ทางไกล	-8471
นึกถึง	-8472
ประโยค	-8473
ศาสตรา	-8474
สิ่งทอ	-8475
สืบค้น	-8476
ส่งของ	-8477
หน้าตา	-8478
าสมัคร	-8479
เราจึง	-8480
แผนไทย	-8481
แล้วจะ	-8482
ไตรมาส	-8483
<_>2563	-8484
Content	-8485
กองหลัง	-8486
การพนัน	-8487
คณะศิลป	-8488
จึงเป็น	-8489
ช่วงนี้	-8490
ที่เห็น	-8491
ทุกเวลา	-8492
ทําร้าย	-8493
ผู้สนใจ	-8494
ผ้าม่าน	-8495
ราชเทวี	-8496
สมรรถนะ	-8497
เขตสาทร	-8498
ให้อยู่	-8499
ให้เกิด	-8500
<_>26<_>	-8501
ครุภัณฑ์	-8502
จิตวิทยา	-8503
ด้วยครับ	-8504
ทาวน์โฮม	-8505
นั่งเล่น	-8506
ผู้เขียน	-8507
พร้อมรับ	-8508
มาร์เก็ต	-8509
รถมือสอง	-8510
สื่อกลาง	-8511
หน้าร้าน	-8512
เกมส์นี้	-8513
เก็บเงิน	-8514
และบัญชี	-8515
ใช้ชีวิต	-8516
ในหัวข้อ	-8517
Indonesia	-8518
กับเพื่อน	-8519
จะเป็นการ	-8520
ทางธุรกิจ	-8521
รองรับการ	-8522
ร้องทุกข์	-8523
เปลี่ยนไป	-8524
และบริษัท	-8525
โดยทีมงาน	-8526
โทรคมนาคม	-8527
ให้มีความ	-8528
การตั้งค่า	-8529
ข้อเสนอแนะ	-8530
นอกจากนั้น	-8531
ป้องกันโรค	-8532
ออกจากระบบ	-8533
เข้ารับการ	-8534
เข้าร่วมงาน	-8535
แสดงให้เห็น	-8536
ของผู้ใช้งาน	-8537
ผู้ใช้บริการ	-8538
แสดงความเห็น	-8539
โดยอัตโนมัติ	-8540
โรงเรียนบ้าน	-8541
ไฮไลท์ฟุตบอล	-8542
และการสื่อสาร	-8543
ประกวดราคาซื้อ	-8544
สมัครขายอีบุ๊ก	-8545
ได้เป็นอย่างดี	-8546
จังหวัดพิษณุโลก	-8547
17	-8548
26	-8549
7=	-8550
DI	-8551
DR	-8552
MI	-8553
PP	-8554
Po	-8555
SL	-8556
SN	-8557
VS	-8558
WE	-8559
ds	-8560
jo	-8561
лг	-8562
ชง	-8563
ตบ	-8564
ฟา	-8565
รก	-8566
ศร	-8567
๑๕	-8568
Dou	-8569
Fre	-8570
Met	-8571
PHP	-8572
PUB	-8573
Sun	-8574
Syn	-8575
Toy	-8576
low	-8577
mas	-8578
reg	-8579
ush	-8580
van	-8581
ълг	-8582
ชุบ	-8583
นูญ	-8584
บบุ	-8585
บุน	-8586
บุร	-8587
บ่ง	-8588
ผัน	-8589
วิด	-8590
หลบ	-8591
แทก	-8592
แทค	-8593
โภช	-8594
โหม	-8595
ไชย	-8596
๊าซ	-8597
Girl	-8598
ague	-8599
angu	-8600
ants	-8601
cept	-8602
food	-8603
look	-8604
ural	-8605
čina	-8606
ค้าน	-8607
ทฤษฎ	-8608
ปะทะ	-8609
พม่า	-8610
พรหม	-8611
พลาย	-8612
มาดู	-8613
มินิ	-8614
ยูนิ	-8615
หลาบ	-8616
อัจฉ	-8617
ิยาย	-8618
-5<_>	-8619
16<_>	-8620
9,<_>	-8621
<_>..	-8622
<_>45	-8623
Beaut	-8624
Games	-8625
Infin	-8626
amily	-8627
annel	-8628
irect	-8629
orage	-8630
арски	-8631
กรุ่น	-8632
ดุสิต	-8633
พรัตน	-8634
ฟิลด์	-8635
มันก็	-8636
วัฒนา	-8637
สนุกๆ	-8638
โมเดล	-8639
600<_>	-8640
800<_>	-8641
Global	-8642
Huawei	-8643
Update	-8644
system	-8645
การออก	-8646
การให้	-8647
ดินแดน	-8648
ติดถนน	-8649
ที่รัก	-8650
ที่สอง	-8651
นั้นมี	-8652
นางแบบ	-8653
บางจาก	-8654
พระเอก	-8655
มหาเมฆ	-8656
ยอดขาย	-8657
รําลึก	-8658
ศาลพระ	-8659
สตาร์ท	-8660
อิสลาม	-8661
าธิบดี	-8662
เผยว่า	-8663
เรารู้	-8664
เหยื่อ	-8665
แสวงหา	-8666
ไม่ใช้	-8667
<_>“<_>	-8668
กันบ้าง	-8669
ของความ	-8670
ข่าวลือ	-8671
คลองเตย	-8672
จุดหมาย	-8673
ต้นฉบับ	-8674
ที่เปิด	-8675
ธรรมนูญ	-8676
ผลักดัน	-8677
มีอาการ	-8678
ยานยนต์	-8679
สัญชาติ	-8680
เท่ากับ	-8681
เราเป็น	-8682
12345678	-8683
2<_>=<_>	-8684
<_>1-255	-8685
<_>70<_>	-8686
Services	-8687
Shopping	-8688
ългарски	-8689
คอลลาเจน	-8690
จอมเกล้า	-8691
ช้อปปิ้ง	-8692
ซุปเปอร์	-8693
ตื่นเต้น	-8694
ที่จอดรถ	-8695
หุ้นส่วน	-8696
ออกแบบมา	-8697
เวอร์ชัน	-8698
เว็ปไซต์	-8699
<_>3.0<_>	-8700
ข้อมูลการ	-8701
จนกระทั่ง	-8702
ดูซีรี่ย์	-8703
ที่ขัดต่อ	-8704
มวยวันนี้	-8705
มหัศจรรย์	-8706
รางวัลที่	-8707
รายงานตัว	-8708
สร้างขึ้น	-8709
สวัสดิการ	-8710
หลายอย่าง	-8711
อนิเมชั่น	-8712
เตรียมสอบ	-8713
โบรกเกอร์	-8714
ได้ทุกที่	-8715
จ้างออกแบบ	-8716
ด้านสุขภาพ	-8717
ต้องการให้	-8718
ระบบจัดการ	-8719
ราคาไม่แพง	-8720
วิธีทําการ	-8721
สรรพสินค้า	-8722
หลังการขาย	-8723
ของโรงเรียน	-8724
ประชาธิปไตย	-8725
ศาสตราจารย์	-8726
ศูนย์ราชการ	-8727
เป็นที่นิยม	-8728
และครอบครัว	-8729
การวิเคราะห์	-8730
คอร์ดกีต้าร์	-8731
จ้างก่อสร้าง	-8732
ที่ยอดเยี่ยม	-8733
ที่ให้บริการ	-8734
มีประสบการณ์	-8735
โพสต์ข้อความ	-8736
ดูทีวีออนไลน์	-8737
อายุการใช้งาน	-8738
ให้ความสําคัญ	-8739
ที่มีชื่อเสียง	-8740
หน่วยงานราชการ	-8741
แขวงทุ่งมหาเมฆ	-8742
และจัดจําหน่าย	-8743
การแพร่ระบาดของ	-8744
วิธีทําการเกษตร	-8745
การจัดการความรู้	-8746
,3	-8747
95	-8748
DC	-8749
DL	-8750
ao	-8751
ชก	-8752
ลก	-8753
ศต	-8754
ษุ	-8755
อู	-8756
▁บ	-8757
▁ม	-8758
Bar	-8759
Str	-8760
fri	-8761
ior	-8762
key	-8763
ope	-8764
ose	-8765
ple	-8766
sur	-8767
was	-8768
ขุม	-8769
จาง	-8770
ฉีก	-8771
ตช์	-8772
ตตา	-8773
ตึง	-8774
นีย	-8775
ปอง	-8776
รฟท	-8777
รัน	-8778
สับ	-8779
สูบ	-8780
อุท	-8781
ากา	-8782
ูกิ	-8783
เณร	-8784
เรน	-8785
เหง	-8786
แชท	-8787
แด่	-8788
แถบ	-8789
แอส	-8790
๋อง	-8791
Anti	-8792
Host	-8793
PION	-8794
Site	-8795
Tran	-8796
Zone	-8797
comm	-8798
ends	-8799
fore	-8800
free	-8801
iece	-8802
iron	-8803
ouch	-8804
reat	-8805
ก๊าซ	-8806
คู่น	-8807
ชนบท	-8808
บาตร	-8809
ลิ่ง	-8810
หมุด	-8811
ากระ	-8812
าชีพ	-8813
ามัน	-8814
ามือ	-8815
เพลส	-8816
แกรง	-8817
แท่ง	-8818
ไซท์	-8819
่าร์	-8820
2)<_>	-8821
37<_>	-8822
38<_>	-8823
<_>1:	-8824
Assoc	-8825
Night	-8826
SPORT	-8827
Table	-8828
Tiger	-8829
White	-8830
abled	-8831
adget	-8832
issan	-8833
ตามหา	-8834
ที่ผม	-8835
ปรารถ	-8836
ฟิสิก	-8837
ภิกษุ	-8838
หยุ่น	-8839
เพลย์	-8840
โฟกัส	-8841
ไว้ใจ	-8842
250<_>	-8843
Titles	-8844
กันสาด	-8845
กุหลาบ	-8846
ของงาน	-8847
ของมัน	-8848
คัดลอก	-8849
คู่กับ	-8850
ต่ําไป	-8851
ทางเพศ	-8852
ท่านใด	-8853
ฟเวอร์	-8854
มีขนาด	-8855
ลําบาก	-8856
วัดและ	-8857
อกระบบ	-8858
ั่นเอง	-8859
เงินสด	-8860
เช่ารถ	-8861
แปลว่า	-8862
ไปต่ํา	-8863
ไม่ยาก	-8864
<_>2018	-8865
<_>2020	-8866
Authors	-8867
คืนเงิน	-8868
ที่เข้า	-8869
นียบัตร	-8870
บอกเล่า	-8871
ปาร์ตี้	-8872
ฟิสิกส์	-8873
ยุ่งยาก	-8874
สวดมนต์	-8875
อัพเกรด	-8876
อิทธิพล	-8877
ไม่พลาด	-8878
1<_>=<_>	-8879
3<_>=<_>	-8880
<_>45<_>	-8881
<_>85<_>	-8882
<_>:<_><	-8883
Comments	-8884
Software	-8885
Solution	-8886
Subjects	-8887
novation	-8888
thailand	-8889
กสิกรไทย	-8890
กําลังจะ	-8891
ขนาดกลาง	-8892
ดอนเมือง	-8893
ด้วยนะคะ	-8894
ที่ปรากฏ	-8895
นอร์เวย์	-8896
ผลตอบแทน	-8897
พื้นบ้าน	-8898
ลําเลียง	-8899
สัญญากับ	-8900
สินค้าใน	-8901
สีเหลือง	-8902
อะไรบ้าง	-8903
อาหารไทย	-8904
เบอร์สวย	-8905
เบอร์โทร	-8906
เรายินดี	-8907
แม่พิมพ์	-8908
และสร้าง	-8909
โรแมนติก	-8910
โหลดเพลง	-8911
ในตอนนี้	-8912
<_>2-0<_>	-8913
ข้อมูลและ	-8914
จํานวนผู้	-8915
ทางการค้า	-8916
บริสุทธิ์	-8917
ระดับชั้น	-8918
วันสําคัญ	-8919
สายพันธุ์	-8920
อาสาสมัคร	-8921
เกษตรกรรม	-8922
แบคทีเรีย	-8923
และทําการ	-8924
<_>2011<_>	-8925
Management	-8926
กีฬาฟุตบอล	-8927
คลังสินค้า	-8928
ตามโครงการ	-8929
ตําบลเมือง	-8930
รัฐธรรมนูญ	-8931
วันอาทิตย์	-8932
โรงงานผลิต	-8933
ในการพัฒนา	-8934
ไม่เหมาะสม	-8935
กระจายเสียง	-8936
ที่หลากหลาย	-8937
ประจําเดือน	-8938
เมื่อวันที่	-8939
เรียกได้ว่า	-8940
กรุณาตรวจสอบ	-8941
ตัวอย่างเช่น	-8942
ผลการแข่งขัน	-8943
จังหวัดสกลนคร	-8944
นักท่องเที่ยว	-8945
ประกาศนียบัตร	-8946
สําหรับลูกค้า	-8947
เด็กและเยาวชน	-8948
เป็นอย่างยิ่ง	-8949
ห้างสรรพสินค้า	-8950
ไม่จําเป็นต้อง	-8951
ขอแสดงความยินดี	-8952
ได้อย่างรวดเร็ว	-8953
▁สมัครขายอีบุ๊ก	-8954
เป็นประธานในพิธี	-8955
33	-8956
8=	-8957
>-	-8958
AG	-8959
Is	-8960
KP	-8961
TN	-8962
xy	-8963
หิ	-8964
ฬห	-8965
!!!	-8966
Bas	-8967
Bel	-8968
Cas	-8969
Lat	-8970
MAN	-8971
Pet	-8972
Run	-8973
Spa	-8974
Suz	-8975
esc	-8976
inc	-8977
ini	-8978
ora	-8979
ขวบ	-8980
ชนี	-8981
ดิส	-8982
ทบท	-8983
ภัก	-8984
รมา	-8985
ลุค	-8986
ากี	-8987
เจต	-8988
แคว	-8989
<_>!	-8990
Bank	-8991
HTML	-8992
Mini	-8993
Sale	-8994
ards	-8995
high	-8996
oice	-8997
ongk	-8998
จอร์	-8999
ทารก	-9000
มรดก	-9001
อร์ก	-9002
ี่ส์	-9003
เขาน	-9004
เค็ม	-9005
แซ่บ	-9006
,<_>.	-9007
.00-1	-9008
::<_>	-9009
>"<_>	-9010
><_>“	-9011
China	-9012
Forum	-9013
THAIL	-9014
categ	-9015
cedes	-9016
icial	-9017
learn	-9018
under	-9019
ustom	-9020
ก็เลย	-9021
คนขับ	-9022
คอลัม	-9023
คาเฟ่	-9024
จะนํา	-9025
ดีมาก	-9026
ทบทวน	-9027
พอร์ต	-9028
มีค่า	-9029
สกปรก	-9030
เทือน	-9031
เบิร์	-9032
เฟิร์	-9033
เวียง	-9034
แซงต์	-9035
โบสถ์	-9036
้ง่าย	-9037
League	-9038
ของใช้	-9039
คู่รัก	-9040
ตรงนี้	-9041
ตะแกรง	-9042
ตุ๊กตา	-9043
ต่อยอด	-9044
ทางคู่	-9045
ทําเอา	-9046
มุสลิม	-9047
ล้านคน	-9048
อักเสบ	-9049
อาสาฬห	-9050
เป็นไป	-9051
เรือใบ	-9052
เวิร์ค	-9053
แผนการ	-9054
โดยทีม	-9055
ใจกลาง	-9056
ในห้อง	-9057
ได้ถูก	-9058
ได้อีก	-9059
<_>·<_>	-9060
Youtube	-9061
กว่านี้	-9062
การซื้อ	-9063
ดัดแปลง	-9064
ทุกชิ้น	-9065
พระธรรม	-9066
พอสมควร	-9067
สินค้าร	-9068
หรือนํา	-9069
ักศึกษา	-9070
เราต้อง	-9071
▁วันนี้	-9072
<_>2.<_>	-9073
><_>1<_>	-9074
Italiano	-9075
กลับบ้าน	-9076
ขออนุญาต	-9077
ที่เราจะ	-9078
บูรณาการ	-9079
ปรับแต่ง	-9080
ปั๊มน้ํา	-9081
มีคุณภาพ	-9082
วันหนึ่ง	-9083
ศรีนคริน	-9084
แปลงไฟล์	-9085
โปสเตอร์	-9086
<_>1-0<_>	-9087
<_>250<_>	-9088
Knowledge	-9089
กว้างขวาง	-9090
ของสมาชิก	-9091
ต่ําไปสูง	-9092
ทีเด็ดบอล	-9093
ที่ทําการ	-9094
ทุกประการ	-9095
มาร่วมงาน	-9096
สูงไปต่ํา	-9097
หยุดหายใจ	-9098
เทคนิคการ	-9099
เทนเซ็นต์	-9100
แผนการจัด	-9101
และคุกกี้	-9102
<_>2012<_>	-9103
experience	-9104
ชิงชนะเลิศ	-9105
ช่องทางการ	-9106
พัฒนาสังคม	-9107
มาพร้อมกับ	-9108
ลดกระหน่ํา	-9109
อย่างหนึ่ง	-9110
เชื้อเพลิง	-9111
ในลุ่มน้ํา	-9112
ตั้งแต่เวลา	-9113
ทุกหมวดหมู่	-9114
ศูนย์การค้า	-9115
ไม่น้อยกว่า	-9116
ขอสงวนสิทธิ์	-9117
นักเรียนชั้น	-9118
มีความสามารถ	-9119
เกมส์แต่งตัว	-9120
การปฏิบัติงาน	-9121
บนเว็บไซต์นี้	-9122
<_>©<_>2563<_>	-9123
ผลการดําเนินงาน	-9124
รักษาความปลอดภัย	-9125
เรียงตามความนิยม	-9126
34	-9127
AK	-9128
BI	-9129
Dh	-9130
Hi	-9131
OW	-9132
RM	-9133
SU	-9134
จ์	-9135
มจ	-9136
ร่	-9137
สอ	-9138
ไถ	-9139
COL	-9140
End	-9141
Gam	-9142
Lom	-9143
SME	-9144
VDO	-9145
Zen	-9146
aru	-9147
eet	-9148
iel	-9149
ute	-9150
zen	-9151
กลู	-9152
จอก	-9153
รุม	-9154
ลี่	-9155
สตี	-9156
าส์	-9157
แบล	-9158
<_>?	-9159
Mail	-9160
Tool	-9161
aker	-9162
clus	-9163
enov	-9164
olar	-9165
plus	-9166
raft	-9167
rict	-9168
ypes	-9169
นําน	-9170
รั้ง	-9171
สรรค	-9172
ายัง	-9173
ื้อม	-9174
เซ็ก	-9175
เท็จ	-9176
่ออก	-9177
้ารถ	-9178
.7<_>	-9179
17<_>	-9180
95<_>	-9181
><_>1	-9182
Grand	-9183
Light	-9184
idget	-9185
order	-9186
witch	-9187
ชัวร์	-9188
ทฤษฎี	-9189
ทิพย์	-9190
ที่ดู	-9191
พิทยา	-9192
มัลติ	-9193
มาลัย	-9194
ระงับ	-9195
ออโต้	-9196
อุทิศ	-9197
ายงาน	-9198
เธอก็	-9199
Access	-9200
Suzuki	-9201
ending	-9202
กระบัง	-9203
กระแทก	-9204
กันแดด	-9205
การนํา	-9206
ชื่นชม	-9207
ถึงกับ	-9208
ทรูมูฟ	-9209
ทําตาม	-9210
บรรเทา	-9211
ฟิตเนส	-9212
มากรรม	-9213
มีระบบ	-9214
ริงโทน	-9215
ลูกปืน	-9216
ส่งต่อ	-9217
โปรตีน	-9218
ไอเท็ม	-9219
Website	-9220
anguage	-9221
ocument	-9222
reading	-9223
ซีรี่ส์	-9224
ที่แสดง	-9225
ปทุมวัน	-9226
ปรารถนา	-9227
วิธีใช้	-9228
ศิลปากร	-9229
สะเทือน	-9230
สูงขึ้น	-9231
หรือส่ง	-9232
เซลเซีย	-9233
เรตติ้ง	-9234
ได้ครับ	-9235
ได้หลาย	-9236
ไม่เห็น	-9237
<_>38<_>	-9238
Creative	-9239
Learning	-9240
THAILAND	-9241
download	-9242
จนทําให้	-9243
ซึมเศร้า	-9244
พรุ่งนี้	-9245
ฟังก์ชัน	-9246
รักษาโรค	-9247
เช็คราคา	-9248
เช่นนั้น	-9249
เริ่มจาก	-9250
แล้วครับ	-9251
ที่ยอมรับ	-9252
ที่ลูกค้า	-9253
มีความรู้	-9254
ลายลักษณ์	-9255
เข้าพรรษา	-9256
และควบคุม	-9257
โดยทั่วไป	-9258
ของเจ้าของ	-9259
ข้อความใดๆ	-9260
ความสําคัญ	-9261
ชื่อเรื่อง	-9262
ด้วยนะครับ	-9263
ตัวเครื่อง	-9264
ตั้งอยู่ใน	-9265
ตามมาตรฐาน	-9266
ปีงบประมาณ	-9267
ราคาทองคํา	-9268
อัลบั้มรูป	-9269
เพลงประกอบ	-9270
ของหน่วยงาน	-9271
ข่าวบันเทิง	-9272
ความเสียหาย	-9273
ทางการเมือง	-9274
ที่จะทําให้	-9275
บาร์เซโลน่า	-9276
สมุทรสงคราม	-9277
เครื่องครัว	-9278
เครื่องปั่น	-9279
แอปพลิเคชัน	-9280
โปรเจคเตอร์	-9281
ครั้งสุดท้าย	-9282
ดูบอลออนไลน์	-9283
ผู้จัดการทีม	-9284
วางระบบบัญชี	-9285
ศักดิ์สิทธิ์	-9286
ศิลปวัฒนธรรม	-9287
ไม่ใช่เรื่อง	-9288
ความรู้ทั่วไป	-9289
จังหวัดชลบุรี	-9290
ที่ได้มาตรฐาน	-9291
ประสบการณ์ที่	-9292
คณะมนุษยศาสตร์	-9293
นอกจากนี้ยังมี	-9294
ลายลักษณ์อักษร	-9295
ในจังหวัดระยอง	-9296
สําหรับนักศึกษา	-9297
เรื่องร้องเรียน	-9298
เจ้าของลิขสิทธิ์	-9299
เพิ่มประสิทธิภาพ	-9300
โรงงานอุตสาหกรรม	-9301
CM	-9302
EE	-9303
Im	-9304
Ma	-9305
Of	-9306
SI	-9307
cm	-9308
ek	-9309
ja	-9310
sr	-9311
بي	-9312
หด	-9313
าท	-9314
เเ	-9315
>,<	-9316
ART	-9317
Hel	-9318
Inc	-9319
Lad	-9320
Rel	-9321
SUB	-9322
Sou	-9323
Tag	-9324
USD	-9325
asd	-9326
ely	-9327
esp	-9328
may	-9329
mit	-9330
nam	-9331
par	-9332
ซิม	-9333
น้า	-9334
ปวง	-9335
ฟริ	-9336
ยุง	-9337
ลาภ	-9338
วด์	-9339
สตา	-9340
สพป	-9341
หรา	-9342
านา	-9343
ุ้ง	-9344
เคา	-9345
ใหล	-9346
้วง	-9347
Anim	-9348
Benz	-9349
Chin	-9350
Expl	-9351
Hist	-9352
Land	-9353
Tube	-9354
life	-9355
nect	-9356
real	-9357
ters	-9358
used	-9359
ขจัด	-9360
ชั่ง	-9361
นาดา	-9362
น้อม	-9363
ร่อง	-9364
สลัด	-9365
สัตว	-9366
สั่น	-9367
หวัด	-9368
เกิล	-9369
เช็ด	-9370
เบิก	-9371
แว่น	-9372
โคตร	-9373
โป่ง	-9374
▁ขาย	-9375
-4<_>	-9376
3,<_>	-9377
5,<_>	-9378
76<_>	-9379
<_>33	-9380
<_>38	-9381
Panel	-9382
Print	-9383
offee	-9384
power	-9385
คนดัง	-9386
จดจํา	-9387
ดัชนี	-9388
ตํารา	-9389
ทดแทน	-9390
นิสัย	-9391
ภักดี	-9392
มียอด	-9393
รถบัส	-9394
ลาพัก	-9395
ุมงคล	-9396
เลนส์	-9397
เอื้อ	-9398
โทนสี	-9399
ไก่ชน	-9400
ได้ไป	-9401
่อยู่	-9402
ําลัง	-9403
Academ	-9404
Gadget	-9405
asonic	-9406
คุยกับ	-9407
จนกว่า	-9408
จากที่	-9409
ชายหาด	-9410
ซอยงาม	-9411
ถนนราช	-9412
บรมราช	-9413
ผู้ขาย	-9414
มีหลาย	-9415
ว่าได้	-9416
ศตวรรษ	-9417
ศรัทธา	-9418
สมาคมฯ	-9419
สายรัด	-9420
หรือจะ	-9421
หลงใหล	-9422
หลายปี	-9423
เดี๋ยว	-9424
เตี๋ยว	-9425
เทนนิส	-9426
ไทยและ	-9427
ําเสนอ	-9428
Support	-9429
Welcome	-9430
กระเช้า	-9431
ขาเทียม	-9432
คลาสสิค	-9433
คุณต้อง	-9434
จัดซื้อ	-9435
จัดแสดง	-9436
ช่วงที่	-9437
ซัพพลาย	-9438
ตอบกลับ	-9439
ถวายพระ	-9440
ที่อยาก	-9441
ผิวพรรณ	-9442
สมัยที่	-9443
ส่วนมาก	-9444
หรือใช้	-9445
หลายๆคน	-9446
อิหร่าน	-9447
อุปสรรค	-9448
เทพรัตน	-9449
เสียดาย	-9450
ในชุมชน	-9451
4<_>=<_>	-9452
ชําระค่า	-9453
น้ําพริก	-9454
บ้านหนอง	-9455
ผลงานของ	-9456
ยุติธรรม	-9457
สกุลเงิน	-9458
หุ่นยนต์	-9459
อยู่เสมอ	-9460
อีสปอร์ต	-9461
เป็นความ	-9462
เรือพ่วง	-9463
ข้อมูลจาก	-9464
คริสต์มาส	-9465
จองโรงแรม	-9466
ทุกวันนี้	-9467
ผู้ปกครอง	-9468
สละสิทธิ์	-9469
อธิบดีกรม	-9470
Conference	-9471
คลิปวิดีโอ	-9472
ความรู้จัก	-9473
จดหมายข่าว	-9474
ติดต่อกลับ	-9475
สินค้าใหม่	-9476
อาชีวศึกษา	-9477
อาสาฬหบูชา	-9478
เป็นบริษัท	-9479
เหมือนเดิม	-9480
ในการสร้าง	-9481
ได้มากกว่า	-9482
ได้เลยครับ	-9483
ก่อตั้งขึ้น	-9484
คอนเทนเนอร์	-9485
ติดต่อโฆษณา	-9486
วันคล้ายวัน	-9487
องศาเซลเซีย	-9488
เราขอแนะนํา	-9489
ขาดคุณสมบัติ	-9490
วิทยุออนไลน์	-9491
สังคมออนไลน์	-9492
ามหาวิทยาลัย	-9493
เช่นเดียวกัน	-9494
ในการแข่งขัน	-9495
ให้กับลูกค้า	-9496
จนถึงปัจจุบัน	-9497
ทําความรู้จัก	-9498
สหราชอาณาจักร	-9499
สิ่งปลูกสร้าง	-9500
หัวใจเรือพ่วง	-9501
เพื่อส่งเสริม	-9502
ตลาดหลักทรัพย์	-9503
สถาบันการศึกษา	-9504
และเจ้าหน้าที่	-9505
ในการให้บริการ	-9506
ในสหรัฐอเมริกา	-9507
ได้อย่างง่ายดาย	-9508
.8	-9509
5=	-9510
Fa	-9511
QR	-9512
TE	-9513
cu	-9514
ขั	-9515
จว	-9516
ปว	-9517
ไค	-9518
Att	-9519
Clo	-9520
Dev	-9521
Fri	-9522
GPS	-9523
IVE	-9524
Mel	-9525
RPG	-9526
bus	-9527
eel	-9528
ili	-9529
mai	-9530
ond	-9531
oph	-9532
oss	-9533
rem	-9534
ขาม	-9535
คึก	-9536
ชิพ	-9537
ดวล	-9538
นท์	-9539
บรู	-9540
บอส	-9541
พุธ	-9542
มีด	-9543
ลัด	-9544
ออง	-9545
เซฟ	-9546
เพน	-9547
โคก	-9548
ไอด	-9549
่อล	-9550
๒๕๕	-9551
Care	-9552
Fest	-9553
Good	-9554
ISHI	-9555
Kids	-9556
Lamb	-9557
Miss	-9558
Save	-9559
ball	-9560
blem	-9561
icle	-9562
orer	-9563
pert	-9564
rary	-9565
ship	-9566
กราบ	-9567
ก็คง	-9568
ฎีกา	-9569
ทนาย	-9570
นิคม	-9571
บรรณ	-9572
พกพา	-9573
พารา	-9574
มาก็	-9575
ลั่น	-9576
วินิ	-9577
วิภา	-9578
วีดี	-9579
สุดา	-9580
อ่าว	-9581
ารัฐ	-9582
เคาร	-9583
เฉลย	-9584
เชิด	-9585
เอิง	-9586
▁ที่	-9587
.<_>-	-9588
11<_>	-9589
29<_>	-9590
5<_>(	-9591
63<_>	-9592
66<_>	-9593
96<_>	-9594
Cross	-9595
Final	-9596
Style	-9597
iller	-9598
iving	-9599
oogle	-9600
กระทง	-9601
บุกไป	-9602
ประติ	-9603
ปรึกษ	-9604
ผู้ใด	-9605
พิชิต	-9606
มิวสิ	-9607
รอคอย	-9608
วัตต์	-9609
วาล์ว	-9610
อาร์ต	-9611
ฮีโร่	-9612
เซเดส	-9613
เนียบ	-9614
เรอัล	-9615
โดเมน	-9616
โมบาย	-9617
ในลีก	-9618
▁ก่อน	-9619
Family	-9620
Master	-9621
Prince	-9622
office	-9623
ขบวนรถ	-9624
ของเกม	-9625
คําค้น	-9626
ต่อจาก	-9627
ถึงแม้	-9628
ทุกที่	-9629
ทุกมุม	-9630
ปฏิรูป	-9631
ประกาย	-9632
ผู้รับ	-9633
วันแรก	-9634
ว่ามัน	-9635
ว่าเขา	-9636
สายพาน	-9637
เข้าพบ	-9638
เศรษฐี	-9639
▁กลุ่ม	-9640
Control	-9641
ซึ่งได้	-9642
นั้นได้	-9643
นางเจ้า	-9644
วันเด็ก	-9645
วุ่นวาย	-9646
ว่าด้วย	-9647
หนังไทย	-9648
หรือที่	-9649
อีกหลาย	-9650
เว็บไทย	-9651
แขวงบาง	-9652
แต่งรูป	-9653
ใกล้กับ	-9654
ได้เป็น	-9655
.<_>-<_>	-9656
essional	-9657
ทําผลงาน	-9658
นําไปสู่	-9659
มุ่งเน้น	-9660
ยืดหยุ่น	-9661
ล้างหน้า	-9662
สยองขวัญ	-9663
สังสรรค์	-9664
หน้าใหม่	-9665
โภชนาการ	-9666
Entertain	-9667
คณะทํางาน	-9668
ยักษ์ใหญ่	-9669
ลาดกระบัง	-9670
วัตถุมงคล	-9671
เดินทางมา	-9672
เสร็จแล้ว	-9673
เหนือกว่า	-9674
แชร์ไปที่	-9675
<_>2566<_>	-9676
<_>©<_>200	-9677
นอกสถานที่	-9678
ผลงานวิจัย	-9679
พุทธศาสตร์	-9680
ราคาสินค้า	-9681
วอลเปเปอร์	-9682
ศาลพระภูมิ	-9683
ส่วนประกอบ	-9684
หลีกเลี่ยง	-9685
เมอร์เซเดส	-9686
แต่อย่างใด	-9687
แผ่นดินไหว	-9688
ให้ความรู้	-9689
ได้สําเร็จ	-9690
<_>3,000<_>	-9691
Development	-9692
กรมทรัพยากร	-9693
ความแตกต่าง	-9694
ซัมเมอร์นี้	-9695
ประติมากรรม	-9696
พร้อมบริการ	-9697
สภาพแวดล้อม	-9698
โรงเรียนวัด	-9699
ให้สัมภาษณ์	-9700
การจัดอันดับ	-9701
ครีมทาผิวขาว	-9702
ที่ได้จากการ	-9703
ราชภัฏธนบุรี	-9704
แบบอัตโนมัติ	-9705
จะเป็นอย่างไร	-9706
วันอาสาฬหบูชา	-9707
ต้องการนําเสนอ	-9708
บัณฑิตวิทยาลัย	-9709
อันเนื่องมาจาก	-9710
พระบาทสมเด็จพระ	-9711
มีส่วนร่วมในการ	-9712
สถานีในลุ่มน้ํา	-9713
เข้าร่วมกิจกรรม	-9714
สมเด็จพระนางเจ้า	-9715
สอบถามรายละเอียด	-9716
2,	-9717
AU	-9718
AV	-9719
DP	-9720
GT	-9721
MD	-9722
PM	-9723
Sw	-9724
vl	-9725
ın	-9726
عر	-9727
รึ	-9728
สึ	-9729
BMW	-9730
DVD	-9731
Hum	-9732
LIS	-9733
Men	-9734
Non	-9735
Scr	-9736
See	-9737
Tok	-9738
asa	-9739
but	-9740
det	-9741
edy	-9742
eek	-9743
eme	-9744
hel	-9745
met	-9746
net	-9747
que	-9748
uck	-9749
ump	-9750
www	-9751
คาว	-9752
จุก	-9753
ทิม	-9754
ปี้	-9755
ป้า	-9756
มทร	-9757
รีด	-9758
ร่า	-9759
หอย	-9760
อิส	-9761
าสี	-9762
เชน	-9763
เบส	-9764
โน่	-9765
ไรม	-9766
-649	-9767
Band	-9768
Mult	-9769
ails	-9770
blog	-9771
club	-9772
illa	-9773
inet	-9774
ming	-9775
omen	-9776
oney	-9777
จฉัย	-9778
จิ้ม	-9779
ดาวร	-9780
นนท์	-9781
บรรพ	-9782
ผมก็	-9783
พราก	-9784
พลัส	-9785
วัตร	-9786
สงขล	-9787
ัคคี	-9788
าราก	-9789
าส่ง	-9790
ียวย	-9791
แคร์	-9792
โรมา	-9793
1,<_>	-9794
2,<_>	-9795
92<_>	-9796
<_>37	-9797
ASEAN	-9798
Organ	-9799
Ratch	-9800
about	-9801
oodle	-9802
thing	-9803
กลิ้ง	-9804
คนไหน	-9805
คอมเม	-9806
จักรว	-9807
ดูพลี	-9808
ตอนบน	-9809
ทรงผม	-9810
ที่พบ	-9811
ธรรมา	-9812
นิกาย	-9813
พิกัด	-9814
ลงมือ	-9815
ละหาน	-9816
สองคน	-9817
สายไฟ	-9818
สีส้ม	-9819
อย่าร	-9820
ออกซิ	-9821
เวสต์	-9822
เหมาก	-9823
แปลกๆ	-9824
แอฟริ	-9825
ไอดอล	-9826
ไอเทม	-9827
ไอโฟน	-9828
่ารู้	-9829
▁ร้าน	-9830
Associ	-9831
Change	-9832
Polski	-9833
google	-9834
ชี้วัด	-9835
ดินเผา	-9836
ด้านใน	-9837
ถังขยะ	-9838
ถุงผ้า	-9839
นี้อาจ	-9840
ผู้ถือ	-9841
รับมือ	-9842
รับรู้	-9843
รายนี้	-9844
รูเล็ต	-9845
วันพีช	-9846
สายไหม	-9847
สํานึก	-9848
หมูป่า	-9849
หากไม่	-9850
หาซื้อ	-9851
เกอรี่	-9852
เราคือ	-9853
เวิร์ก	-9854
เหล่าน	-9855
แคนาดา	-9856
แถมยัง	-9857
ในระยะ	-9858
ไม่น่า	-9859
ไว้ที่	-9860
<_>2013	-9861
Channel	-9862
Chinese	-9863
Feature	-9864
duction	-9865
กรองแสง	-9866
การรถไฟ	-9867
ของแต่ง	-9868
คนพิเศษ	-9869
คอลัมน์	-9870
คัดกรอง	-9871
ต้องทํา	-9872
ที่สนาม	-9873
บริษัทร	-9874
ปราศจาก	-9875
ปานกลาง	-9876
พลเมือง	-9877
มิวสิคว	-9878
ราคาบอล	-9879
ราชสุดา	-9880
สามัคคี	-9881
อัครราช	-9882
เที่ยวน	-9883
เป็นอัน	-9884
เล่นได้	-9885
เวลานี้	-9886
แจ้งการ	-9887
และช่วย	-9888
โตเกียว	-9889
▁ข้อมูล	-9890
<_>10210	-9891
<_>33<_>	-9892
Explorer	-9893
Password	-9894
interest	-9895
reserved	-9896
กระเทียม	-9897
การค้นหา	-9898
จ้างเหมา	-9899
ชุ่มชื้น	-9900
ด้านข้าง	-9901
ธรรมจักร	-9902
ผู้สมัคร	-9903
ร่วมพิธี	-9904
วันศุกร์	-9905
วินิจฉัย	-9906
หนึ่งที่	-9907
หรือชื่อ	-9908
เกษตรและ	-9909
เนื้อหาน	-9910
เปิดร้าน	-9911
เป็นหลัก	-9912
และเมื่อ	-9913
ได้ออกมา	-9914
ข้อมูลของ	-9915
จะช่วยให้	-9916
ที่ดีขึ้น	-9917
ที่เข้ามา	-9918
ประเมินผล	-9919
มาตั้งแต่	-9920
รับรางวัล	-9921
ละหานทราย	-9922
ศิษย์เก่า	-9923
สม่ําเสมอ	-9924
สูตรอาหาร	-9925
อํานวยการ	-9926
เดือดร้อน	-9927
และทําให้	-9928
ของโครงการ	-9929
จุดประสงค์	-9930
ป้ายกํากับ	-9931
รถไฟฟ้าสาย	-9932
สนใจของคุณ	-9933
หลังจากการ	-9934
เขตราชเทวี	-9935
เซอร์แลนด์	-9936
และพื้นที่	-9937
และเครื่อง	-9938
การใช้ชีวิต	-9939
กําลังมองหา	-9940
ซอยงามดูพลี	-9941
บัณฑิตศึกษา	-9942
บุคคลภายนอก	-9943
ประกันชีวิต	-9944
สอดคล้องกับ	-9945
สังคมศาสตร์	-9946
สิ่งมีชีวิต	-9947
เจริญเติบโต	-9948
เองก็สามารถ	-9949
และส่งเสริม	-9950
ไม่ต่ํากว่า	-9951
ความก้าวหน้า	-9952
หนังสือธรรมะ	-9953
เป็นเว็บไซต์	-9954
คณะแพทยศาสตร์	-9955
ประกาศเชิญชวน	-9956
พนักงานราชการ	-9957
เกี่ยวข้องกับ	-9958
เปิดเผยข้อมูล	-9959
จังหวัดขอนแก่น	-9960
จังหวัดนนทบุรี	-9961
ภาษาต่างประเทศ	-9962
รับประทานอาหาร	-9963
อาคารสํานักงาน	-9964
เครื่องมือช่าง	-9965
เทพรัตนราชสุดา	-9966
เข้าร่วมโครงการ	-9967
เรียนรู้สุขภาวะ	-9968
ที่มีประสิทธิภาพ	-9969
วิทยาลัยนานาชาติ	-9970
54	-9971
>'	-9972
Em	-9973
FM	-9974
IO	-9975
If	-9976
Lo	-9977
di	-9978
nb	-9979
ya	-9980
ทึ	-9981
หะ	-9982
อภ	-9983
โถ	-9984
▁(	-9985
.1-	-9986
1-1	-9987
900	-9988
AIS	-9989
Are	-9990
Boy	-9991
ITA	-9992
MOR	-9993
Mat	-9994
Pok	-9995
SUS	-9996
Sim	-9997
enn	-9998
ged	-9999
han	-10000
nia	-10001
rit	-10002
sit	-10003
tem	-10004
tim	-10005
بية	-10006
กัก	-10007
กัญ	-10008
ขํา	-10009
ควน	-10010
คาน	-10011
ชอป	-10012
ซัด	-10013
ดาบ	-10014
ผืน	-10015
ยาท	-10016
วัว	-10017
อกร	-10018
ู่อ	-10019
เจล	-10020
เชค	-10021
โตะ	-10022
โรม	-10023
Amaz	-10024
Lost	-10025
Resp	-10026
aper	-10027
azda	-10028
care	-10029
cial	-10030
ixel	-10031
need	-10032
rama	-10033
sing	-10034
wood	-10035
กะสี	-10036
ก๋วย	-10037
จะพา	-10038
ดิ้ง	-10039
ดูดี	-10040
ลิ้น	-10041
วาระ	-10042
สวิต	-10043
สุรา	-10044
อร์ส	-10045
อากร	-10046
ารับ	-10047
เต่า	-10048
เทอม	-10049
เพรส	-10050
เราะ	-10051
เหรอ	-10052
แก๊ง	-10053
แทรก	-10054
แย้ง	-10055
โพลี	-10056
โหวต	-10057
ในใจ	-10058
์ตูน	-10059
".<_>	-10060
58<_>	-10061
86<_>	-10062
98<_>	-10063
<_>07	-10064
Click	-10065
Korea	-10066
Leave	-10067
anner	-10068
ature	-10069
iaomi	-10070
ivity	-10071
techn	-10072
عربية	-10073
ค่อยๆ	-10074
งดงาม	-10075
ซอฟท์	-10076
บรรณา	-10077
บารมี	-10078
บูรพา	-10079
มดลูก	-10080
มากับ	-10081
ล่าร์	-10082
สะดุด	-10083
สั้นๆ	-10084
หย่อน	-10085
อน้ํา	-10086
เขามี	-10087
เมนท์	-10088
เยื่อ	-10089
เองก็	-10090
แคมป์	-10091
ไหนดี	-10092
Coffee	-10093
Double	-10094
MITSUB	-10095
Magyar	-10096
achine	-10097
public	-10098
ขายถูก	-10099
คนร้าย	-10100
คนใหม่	-10101
ความจุ	-10102
คอลเลค	-10103
คุณพ่อ	-10104
คําพูด	-10105
ทางถนน	-10106
ที่ติด	-10107
ที่ใคร	-10108
ทุกลีก	-10109
ปูพื้น	-10110
ผู้ทรง	-10111
พร้อมๆ	-10112
ยูเครน	-10113
ย้ายมา	-10114
รถเจ็ด	-10115
วิจิตร	-10116
สามเณร	-10117
หรูหรา	-10118
อัญมณี	-10119
อันนี้	-10120
ุปกรณ์	-10121
เรชั่น	-10122
เอเซีย	-10123
ใช้กับ	-10124
ได้นํา	-10125
▁ค้นหา	-10126
<_>100%	-10127
<_>2-25	-10128
Display	-10129
Protect	-10130
Svenska	-10131
YouTube	-10132
address	-10133
español	-10134
ication	-10135
กรมอุตุ	-10136
ขนาดของ	-10137
คว้าตัว	-10138
ชื่อของ	-10139
ดาวรุ่ง	-10140
ต่อเติม	-10141
ถ้าท่าน	-10142
ทําน้ํา	-10143
นั่นคือ	-10144
พิทยาคม	-10145
มอบความ	-10146
รอยยิ้ม	-10147
ระเบียง	-10148
ริ้วรอย	-10149
วิภาวดี	-10150
สังกะสี	-10151
สารสกัด	-10152
ส่งท้าย	-10153
เข็มขัด	-10154
เข้าใช้	-10155
เท่านี้	-10156
แสดงโดย	-10157
ไม่ระบุ	-10158
<_>39<_>	-10159
<_>48<_>	-10160
<_>:<_>0	-10161
<_>>><_>	-10162
Mercedes	-10163
ของชุมชน	-10164
ข้างหน้า	-10165
คอนเทนต์	-10166
จะมีความ	-10167
ติชมเเละ	-10168
ที่พัฒนา	-10169
ที่สร้าง	-10170
นักเขียน	-10171
สัตว์ป่า	-10172
สาธารณชน	-10173
ห้องเย็น	-10174
อาการปวด	-10175
เข้าระบบ	-10176
เบเกอรี่	-10177
เลสเตอร์	-10178
เสื้อยืด	-10179
และกรุณา	-10180
แอปเปิ้ล	-10181
การปกป้อง	-10182
ของมนุษย์	-10183
ครั้งใหญ่	-10184
คุณภาพของ	-10185
ฉีดวัคซีน	-10186
ที่รวบรวม	-10187
ที่ไม่ได้	-10188
บรมราชกุม	-10189
มิลลิเมตร	-10190
วันจันทร์	-10191
สาธารณรัฐ	-10192
สินค้าจาก	-10193
▁วิทยาลัย	-10194
<_>044-649	-10195
Innovation	-10196
การซื้อขาย	-10197
ข้อผิดพลาด	-10198
ครั้งเดียว	-10199
ตรงกับความ	-10200
มีให้เลือก	-10201
ระหว่างการ	-10202
ศึกษาดูงาน	-10203
อัครราชทูต	-10204
อาร์เซน่อล	-10205
เซอร์ไพรส์	-10206
เพื่อบรรจุ	-10207
ข่าวกิจกรรม	-10208
คลังความรู้	-10209
ชายฝั่งทะเล	-10210
บํารุงรักษา	-10211
เปลี่ยนเป็น	-10212
เป็นสิ่งที่	-10213
เพลงลูกทุ่ง	-10214
เมล็ดพันธุ์	-10215
คหกรรมศาสตร์	-10216
ประกอบไปด้วย	-10217
สามารถติดต่อ	-10218
ห้องนั่งเล่น	-10219
องศาเซลเซียส	-10220
อพาร์ทเม้นท์	-10221
เริ่มตั้งแต่	-10222
การขับเคลื่อน	-10223
การพัฒนาชุมชน	-10224
จังหวัดลพบุรี	-10225
ด้วยเทคโนโลยี	-10226
รถเจ็ดที่นั่ง	-10227
สยามบรมราชกุม	-10228
อํานาจหน้าที่	-10229
เพื่อการพัฒนา	-10230
ประหยัดพลังงาน	-10231
ลงทะเบียนเรียน	-10232
สมัครสมาชิกกับ	-10233
สั่งซื้อสินค้า	-10234
และสังคมศาสตร์	-10235
ละเมิดลิขสิทธิ์	-10236
เพื่อดําเนินการ	-10237
)-	-10238
56	-10239
7,	-10240
RU	-10241
pg	-10242
กต	-10243
จั	-10244
ภร	-10245
ยอ	-10246
CAD	-10247
CSR	-10248
Dut	-10249
ERO	-10250
Lan	-10251
MAR	-10252
Pat	-10253
Som	-10254
Sum	-10255
Tai	-10256
afd	-10257
ago	-10258
bet	-10259
erg	-10260
ins	-10261
mem	-10262
ont	-10263
rad	-10264
rel	-10265
ขอย	-10266
คอก	-10267
คอต	-10268
คิม	-10269
จี้	-10270
จุล	-10271
ซัน	-10272
ซีล	-10273
ตัล	-10274
ทู้	-10275
นุช	-10276
ฝัก	-10277
พิง	-10278
ยีน	-10279
สพฐ	-10280
ส้น	-10281
เท่	-10282
เเต	-10283
.256	-10284
Deli	-10285
Hard	-10286
NEWS	-10287
Note	-10288
Pack	-10289
Pres	-10290
asil	-10291
best	-10292
dust	-10293
fasf	-10294
gold	-10295
inal	-10296
irus	-10297
itsu	-10298
izer	-10299
only	-10300
some	-10301
กล่า	-10302
กึ่ง	-10303
ก็ดี	-10304
คริส	-10305
คลุก	-10306
ซุ้ม	-10307
ปลอก	-10308
พบปะ	-10309
พยาน	-10310
ฟรีๆ	-10311
ระแน	-10312
อยท์	-10313
ี้ยม	-10314
เร้า	-10315
เหงา	-10316
แก่ง	-10317
แต่ม	-10318
ไอพี	-10319
▁SMS	-10320
▁จาก	-10321
"<_><	-10322
).<_>	-10323
1<_>8	-10324
87<_>	-10325
93<_>	-10326
><_>2	-10327
>><_>	-10328
About	-10329
Model	-10330
Order	-10331
Scrub	-10332
Suomi	-10333
afdas	-10334
fasdf	-10335
house	-10336
ourse	-10337
stall	-10338
กระทะ	-10339
กันมา	-10340
คอนเซ	-10341
ตะลุย	-10342
ตัดผม	-10343
สต็อค	-10344
เกษีย	-10345
เจรจา	-10346
เหล้า	-10347
เเล้ว	-10348
”<_>“	-10349
▁เว็บ	-10350
.<_>10	-10351
Corpor	-10352
Report	-10353
asdfas	-10354
indust	-10355
ublish	-10356
verter	-10357
กิริยา	-10358
ขอซื้อ	-10359
ควรรู้	-10360
ค้นหาส	-10361
จะหยุด	-10362
จะอยู่	-10363
จับกุม	-10364
จึงควร	-10365
ที่เธอ	-10366
ที่แสน	-10367
บทเพลง	-10368
บอลไทย	-10369
ปัญหาก	-10370
ภาพรวม	-10371
มาด้วย	-10372
มานั่ง	-10373
ยังชีพ	-10374
รับการ	-10375
รับส่ง	-10376
ลอนดอน	-10377
สดชื่น	-10378
สามเสน	-10379
หากใคร	-10380
อย่ารอ	-10381
ินชําร	-10382
เยียวย	-10383
เวิร์ด	-10384
และหาก	-10385
แอดมิน	-10386
ใต้ดิน	-10387
<_>2560	-10388
History	-10389
digital	-10390
ization	-10391
ความดัน	-10392
ความผิด	-10393
ต่างจาก	-10394
ที่จะมี	-10395
ที่ยิ่ง	-10396
ที่ร่วม	-10397
ทําเป็น	-10398
นาทีที่	-10399
ผลกําไร	-10400
พระสงฆ์	-10401
มะพร้าว	-10402
มิตรภาพ	-10403
รถทัวร์	-10404
สองห้อง	-10405
หรือว่า	-10406
เจ้าพ่อ	-10407
เช็คอิน	-10408
เป็นทีม	-10409
▁บริการ	-10410
<_>2)<_>	-10411
<_>2<_><	-10412
Webboard	-10413
username	-10414
การขนส่ง	-10415
คาดการณ์	-10416
ฆ่าเชื้อ	-10417
ชายหนุ่ม	-10418
ต่อเดือน	-10419
ทันตกรรม	-10420
ปล่อยให้	-10421
ภูมิคุ้ม	-10422
ห้องเช่า	-10423
อร์แลนด์	-10424
อีกต่อไป	-10425
เกมส์ยิง	-10426
เกิดเหตุ	-10427
เซนเซอร์	-10428
เท็จจริง	-10429
เพิ่มพูน	-10430
ในการทํา	-10431
afdasfasf	-10432
การจัดงาน	-10433
การปกครอง	-10434
คุณลักษณะ	-10435
ตอบคําถาม	-10436
ถึงแม้ว่า	-10437
นั่นก็คือ	-10438
ระบายน้ํา	-10439
ลงพื้นที่	-10440
สถานีรถไฟ	-10441
อําเภอแม่	-10442
แถลงการณ์	-10443
และประเทศ	-10444
และสินค้า	-10445
ในภูมิภาค	-10446
ให้เพื่อน	-10447
Lomography	-10448
MITSUBISHI	-10449
українська	-10450
กลั่นแกล้ง	-10451
ก๋วยเตี๋ยว	-10452
ของเครื่อง	-10453
ขอบคุณครับ	-10454
ข่าวไทยรัฐ	-10455
ดําเนินคดี	-10456
ตารางคะแนน	-10457
นับตั้งแต่	-10458
ประวัติและ	-10459
มอบหมายให้	-10460
รับติดตั้ง	-10461
สีน้ําเงิน	-10462
ออกเดินทาง	-10463
เขตหลักสี่	-10464
เงินรางวัล	-10465
เป็นอันดับ	-10466
แตกต่างจาก	-10467
และต้องการ	-10468
และวิธีการ	-10469
ในช่วงเวลา	-10470
ตั้งอยู่ที่	-10471
บทวิเคราะห์	-10472
บัตรประชาชน	-10473
ปลัดกระทรวง	-10474
ผู้มีสิทธิ์	-10475
ร่วมกิจกรรม	-10476
เพื่อให้ได้	-10477
บริการของเรา	-10478
ประกอบธุรกิจ	-10479
เชื่อมต่อกับ	-10480
เทปคําบรรยาย	-10481
เหมาก่อสร้าง	-10482
<_>100,000<_>	-10483
ของภาคฤดูร้อน	-10484
ขายของออนไลน์	-10485
ประเทศญี่ปุ่น	-10486
สถานที่สําคัญ	-10487
สารบัญเว็บไทย	-10488
เอกอัครราชทูต	-10489
ภาพยนตร์เรื่อง	-10490
เครื่องดูดฝุ่น	-10491
เลขทะเบียนผลรวม	-10492
ในการดําเนินการ	-10493
3,	-10494
>(	-10495
>”	-10496
Ba	-10497
Do	-10498
Fo	-10499
GA	-10500
HE	-10501
Li	-10502
SW	-10503
aa	-10504
ฏฐ	-10505
ตง	-10506
ยย	-10507
ัป	-10508
ูบ	-10509
๑๒	-10510
▁B	-10511
▁©	-10512
190	-10513
Bir	-10514
ENT	-10515
Med	-10516
Pop	-10517
San	-10518
Tur	-10519
ano	-10520
ern	-10521
gen	-10522
gro	-10523
ris	-10524
uch	-10525
ugg	-10526
yth	-10527
กุฎ	-10528
ขิง	-10529
ข่ม	-10530
คัก	-10531
จิง	-10532
ตรว	-10533
นุษ	-10534
บีบ	-10535
บุฟ	-10536
บูล	-10537
บู๊	-10538
ปต์	-10539
ปอด	-10540
ป็น	-10541
มาศ	-10542
ย่า	-10543
หรอ	-10544
อ่ะ	-10545
เพร	-10546
แทง	-10547
โกร	-10548
โรน	-10549
โอบ	-10550
,500	-10551
Expo	-10552
Fact	-10553
Myst	-10554
Siam	-10555
THAI	-10556
cert	-10557
itch	-10558
like	-10559
love	-10560
oung	-10561
reet	-10562
rial	-10563
stru	-10564
supp	-10565
uang	-10566
®<_>	-10567
ขลัง	-10568
จินต	-10569
ช็อก	-10570
ซีพี	-10571
ดั้ง	-10572
ตรุษ	-10573
ถ่าน	-10574
น็อค	-10575
ปั้ม	-10576
มหาม	-10577
วิดี	-10578
สต้า	-10579
สนิม	-10580
สมทบ	-10581
สังฆ	-10582
สุขา	-10583
สเปซ	-10584
หรอก	-10585
หัสบ	-10586
เซ็ท	-10587
เบรค	-10588
เผ็ด	-10589
เฟรม	-10590
แคลิ	-10591
แจ็ค	-10592
โปรง	-10593
ไมล์	-10594
83<_>	-10595
<_>3.	-10596
<_>48	-10597
Drama	-10598
ISUZU	-10599
Place	-10600
Stand	-10601
Whats	-10602
arian	-10603
ences	-10604
ident	-10605
login	-10606
quare	-10607
rator	-10608
ronic	-10609
track	-10610
กันดี	-10611
กิติ์	-10612
คนให้	-10613
ระทึก	-10614
ระแนง	-10615
รัชดา	-10616
ละออง	-10617
วิสาข	-10618
ศาสตร	-10619
อาวาส	-10620
อีกที	-10621
ันดับ	-10622
เคารพ	-10623
เตี้ย	-10624
เผือก	-10625
เมาส์	-10626
เรื้อ	-10627
เอาท์	-10628
โคมไฟ	-10629
ไปมาก	-10630
▁ท่าน	-10631
Brasil	-10632
Indust	-10633
Scient	-10634
sloven	-10635
กันและ	-10636
กาลที่	-10637
จะเห็น	-10638
จัดสรร	-10639
จับคู่	-10640
จําคุก	-10641
ช่วยลด	-10642
ซีเรีย	-10643
ดึงดูด	-10644
ตรงจาก	-10645
ตรงตาม	-10646
ตัวของ	-10647
ตัวคุณ	-10648
ที่ยาก	-10649
ทํานอง	-10650
น้ําใจ	-10651
บรรทัด	-10652
ป่าไม้	-10653
ผ้าห่ม	-10654
ภาพของ	-10655
มองว่า	-10656
มารยาท	-10657
ลงชื่อ	-10658
อีเว้น	-10659
เกษียณ	-10660
เชิดชู	-10661
เซ็กส์	-10662
เบาะแส	-10663
เฟิร์ม	-10664
แนวรับ	-10665
แบบไม่	-10666
โนเกีย	-10667
ในน้ํา	-10668
ได้ทาง	-10669
ได้นาน	-10670
ไม้อัด	-10671
<_>2562	-10672
<_>→<_>	-10673
Gallery	-10674
Manager	-10675
Romance	-10676
version	-10677
العربية	-10678
การกีฬา	-10679
ก่อนการ	-10680
ของเว็บ	-10681
ความจํา	-10682
คุ้นเคย	-10683
ค่านิยม	-10684
งานแต่ง	-10685
ซึ่งการ	-10686
ตรุษจีน	-10687
ตามด้วย	-10688
ต่ําสุด	-10689
ฝึกซ้อม	-10690
ฟีเจอร์	-10691
มนุษยชน	-10692
รายจ่าย	-10693
สถานภาพ	-10694
ส่วนของ	-10695
อยากรู้	-10696
อย่าโอน	-10697
อีการ์ด	-10698
เกาะติด	-10699
เพราะมี	-10700
เพื่อคน	-10701
แต่เป็น	-10702
<_>2<_>(	-10703
<_>55<_>	-10704
><_>:<_>	-10705
Festival	-10706
กรมพัฒนา	-10707
คนทํางาน	-10708
จัดสร้าง	-10709
ตารางบอล	-10710
ติดตามชม	-10711
ทําเนียบ	-10712
พลัดพราก	-10713
มั่นใจใน	-10714
มีบริการ	-10715
สอบบัญชี	-10716
สารอาหาร	-10717
หนึ่งของ	-10718
ินชําราบ	-10719
เด็กหญิง	-10720
ให้มีการ	-10721
ไซด์ไลน์	-10722
▁ข้อความ	-10723
▁จังหวัด	-10724
português	-10725
ควบคุมโรค	-10726
ตัวชี้วัด	-10727
ติดอันดับ	-10728
ที่ท่านจะ	-10729
ผู้ประกาศ	-10730
มั่นใจว่า	-10731
รู้สึกว่า	-10732
สินทรัพย์	-10733
สิริกิติ์	-10734
สีน้ําตาล	-10735
เจ้าอาวาส	-10736
เฉลิมฉลอง	-10737
เหมือนใคร	-10738
ในกรณีที่	-10739
ในการเล่น	-10740
ให้ลูกค้า	-10741
ได้โดยตรง	-10742
ไม่ได้รับ	-10743
คุณต้องการ	-10744
จดหมายเหตุ	-10745
นิทานธรรมะ	-10746
ปฏิบัติตาม	-10747
ปรากฏการณ์	-10748
รูปแบบใหม่	-10749
สนใจติดต่อ	-10750
สังเคราะห์	-10751
เขตจตุจักร	-10752
เข้าใจง่าย	-10753
เสริมเหล็ก	-10754
ใช้งานง่าย	-10755
ใช้สําหรับ	-10756
TitleAuthor	-10757
ขณะเดียวกัน	-10758
ข้อเท็จจริง	-10759
จะไม่สามารถ	-10760
ตกแต่งบล็อค	-10761
ถนนสุขุมวิท	-10762
ปลาหมึกเบ็ด	-10763
ระดับประเทศ	-10764
สําหรับท่าน	-10765
เกมส์ต่อสู้	-10766
เปอร์เซ็นต์	-10767
เรือใบสีฟ้า	-10768
ทุกวันจันทร์	-10769
ระบบสารสนเทศ	-10770
รับสร้างบ้าน	-10771
สิทธิมนุษยชน	-10772
เช่นเดียวกับ	-10773
ในอุตสาหกรรม	-10774
ที่เต็มไปด้วย	-10775
ศึกษาธิการภาค	-10776
สํานักงานใหญ่	-10777
fasdfafdasfasf	-10778
คณะสถาปัตยกรรม	-10779
จําหน่ายสินค้า	-10780
ตํารวจแห่งชาติ	-10781
ประกาศรับสมัคร	-10782
ระบบปฏิบัติการ	-10783
หรือส่งข่าวสาร	-10784
เข้าร่วมประชุม	-10785
โปรโมชั่นพิเศษ	-10786
<_>2014<_>,<_>.	-10787
<_>©<_>1999-201	-10788
จังหวัดอุดรธานี	-10789
ลูกจ้างชั่วคราว	-10790
เกิดความเสียหาย	-10791
เทพรัตนราชสุดาฯ	-10792
<_>-<_>-<_>-<_>-	-10793
สยามบรมราชกุมารี	-10794
โครงสร้างพื้นฐาน	-10795
67	-10796
Ge	-10797
HS	-10798
KB	-10799
PY	-10800
TT	-10801
YO	-10802
บะ	-10803
ผบ	-10804
ภพ	-10805
ุย	-10806
ๆๆ	-10807
081	-10808
CMS	-10809
Dem	-10810
LTD	-10811
Mem	-10812
PVC	-10813
Pic	-10814
Tex	-10815
Use	-10816
ces	-10817
eno	-10818
fli	-10819
jav	-10820
kad	-10821
ray	-10822
ref	-10823
rin	-10824
sup	-10825
unt	-10826
uro	-10827
wan	-10828
คัม	-10829
จูง	-10830
จ่อ	-10831
ซอล	-10832
ซิก	-10833
ซิส	-10834
ตะล	-10835
ถาน	-10836
ธยา	-10837
บอด	-10838
ปทา	-10839
พอก	-10840
พู่	-10841
มป์	-10842
มาม	-10843
มี่	-10844
ลีด	-10845
หอก	-10846
อับ	-10847
ฮือ	-10848
เช็	-10849
แฝด	-10850
แย่	-10851
โอด	-10852
โอท	-10853
ใกล	-10854
ไขอ	-10855
ไห้	-10856
2559	-10857
Chat	-10858
Fast	-10859
Feed	-10860
Just	-10861
Plan	-10862
REAM	-10863
TCAS	-10864
Test	-10865
esta	-10866
hand	-10867
lick	-10868
loss	-10869
ould	-10870
vest	-10871
กวิน	-10872
ขั้ว	-10873
ดาร์	-10874
ต้นๆ	-10875
บิ๊ก	-10876
มาสด	-10877
รั่ว	-10878
ศิลา	-10879
หมี่	-10880
หุ้ม	-10881
อรรถ	-10882
ั้นๆ	-10883
างาม	-10884
เนตร	-10885
เริง	-10886
แซลม	-10887
ไอซ์	-10888
ไอดี	-10889
่ว่า	-10890
้ําร	-10891
39<_>	-10892
4)<_>	-10893
97<_>	-10894
<_>56	-10895
Audio	-10896
Check	-10897
Count	-10898
Excel	-10899
Point	-10900
Secur	-10901
Types	-10902
Young	-10903
allow	-10904
organ	-10905
plate	-10906
rolet	-10907
world	-10908
ython	-10909
คล่อง	-10910
จุฬาฯ	-10911
ตกปลา	-10912
ตามอง	-10913
บทที่	-10914
บุรุษ	-10915
พากษ์	-10916
พาทีม	-10917
ระมัด	-10918
สเตย์	-10919
ส่งไว	-10920
หลักๆ	-10921
อีกคน	-10922
ายการ	-10923
เกิ้ล	-10924
เพดาน	-10925
เสมอก	-10926
เสริฐ	-10927
เสียบ	-10928
แชร์ก	-10929
โลตัส	-10930
่น้ํา	-10931
<_>0-2	-10932
Commer	-10933
Direct	-10934
Resume	-10935
Smooth	-10936
Xiaomi	-10937
active	-10938
intern	-10939
กราฟิก	-10940
ข้างบน	-10941
คึกคัก	-10942
คุยกัน	-10943
คํานึง	-10944
งานทํา	-10945
จะแสดง	-10946
ต้มยํา	-10947
ต้องมา	-10948
ต้องไป	-10949
ปฏิปทา	-10950
ฝึกหัด	-10951
พิจารณ	-10952
รับงาน	-10953
รูปทรง	-10954
วันพระ	-10955
ว่าที่	-10956
สูงมาก	-10957
อังคาร	-10958
อินสตา	-10959
อุปโภค	-10960
เบียร์	-10961
เปิดใจ	-10962
เรายัง	-10963
และทาง	-10964
และลูก	-10965
ในช่อง	-10966
ไขอื่น	-10967
ไฟไหม้	-10968
ไม่มาก	-10969
ไม่อาจ	-10970
<_>2016	-10971
Academy	-10972
Leaders	-10973
results	-10974
ขนาดไหน	-10975
ของชําร	-10976
ขัดแย้ง	-10977
ครั้งละ	-10978
คาร์บอน	-10979
ชั้นสูง	-10980
ชาวเน็ต	-10981
ซีเมนต์	-10982
ทางทะเล	-10983
ที่ผลิต	-10984
ท้องฟ้า	-10985
นิ้วมือ	-10986
ปากน้ํา	-10987
ผู้ซื้อ	-10988
มีสิทธิ	-10989
ยับยั้ง	-10990
ราชวงศ์	-10991
ศิริราช	-10992
สูตรที่	-10993
หลักของ	-10994
อุดหนุน	-10995
เข้าพัก	-10996
เป็นแบบ	-10997
เพลงไทย	-10998
โดยตลอด	-10999
▁ขอเชิญ	-11000
▁สมาชิก	-11001
<_>:<_>@	-11002
Building	-11003
Computer	-11004
Featured	-11005
register	-11006
ขึ้นเป็น	-11007
ความสนใจ	-11008
ตั้งชื่อ	-11009
ติดฟิล์ม	-11010
ที่มีต่อ	-11011
ที่เพิ่ง	-11012
น้ําผึ้ง	-11013
ประเสริฐ	-11014
สุขภาพดี	-11015
ส่งอีเมล	-11016
หลงเชื่อ	-11017
อตเตอรี่	-11018
อัจฉริยะ	-11019
เจ้าหญิง	-11020
เป็นเงิน	-11021
เร็วๆนี้	-11022
เสริมทัพ	-11023
แต่เมื่อ	-11024
และมีการ	-11025
และเริ่ม	-11026
แสงสว่าง	-11027
โรงแรมใน	-11028
▁กิจกรรม	-11029
<_>2-3<_>	-11030
wordpress	-11031
български	-11032
การเลี้ยง	-11033
งานบริหาร	-11034
ชั้นเรียน	-11035
ตามรายงาน	-11036
ที่ประชุม	-11037
ทุกมุมโลก	-11038
ทุกรูปแบบ	-11039
ผิดกฏหมาย	-11040
ระดับชาติ	-11041
รับจัดงาน	-11042
วิสาขบูชา	-11043
อาร์เซนอล	-11044
เครดิตฟรี	-11045
เนชั่นแนล	-11046
เปิดโอกาส	-11047
โรงแรมที่	-11048
<_>2000<_>	-11049
กฎของแต่ละ	-11050
การตรวจสอบ	-11051
ความยินยอม	-11052
คอลเลคชั่น	-11053
ตรวจสุขภาพ	-11054
ถือเป็นการ	-11055
ท่านได้รับ	-11056
พรีออเดอร์	-11057
ระมัดระวัง	-11058
สําหรับคุณ	-11059
สําหรับใคร	-11060
อินสตาแกรม	-11061
เป็นตัวแทน	-11062
ไทยพาณิชย์	-11063
▁อนุญาตให้	-11064
Association	-11065
ประกันสังคม	-11066
ยืนยันตัวตน	-11067
รอบคัดเลือก	-11068
รับทําบัญชี	-11069
วารินชําราบ	-11070
สําคัญในการ	-11071
เพื่อทําการ	-11072
เพื่อให้คุณ	-11073
เรียงลําดับ	-11074
โรงภาพยนตร์	-11075
<_>30,000<_>	-11076
คอนโดมิเนียม	-11077
ทัวร์ญี่ปุ่น	-11078
ลูกค้าสามารถ	-11079
ศิลปหัตถกรรม	-11080
สวัสดิการและ	-11081
ห้างหุ้นส่วน	-11082
เงื่อนไขอื่น	-11083
เพื่อป้องกัน	-11084
Entertainment	-11085
จังหวัดลําปาง	-11086
สําหรับผู้ที่	-11087
แนะนําหนังสือ	-11088
และความมั่นคง	-11089
โดยเร็วที่สุด	-11090
ได้รับบาดเจ็บ	-11091
สํานักงานพัฒนา	-11092
▁สงวนลิขสิทธิ์	-11093
กรมทรัพยากรธรณี	-11094
ของคุณเกี่ยวกับ	-11095
รองผู้อํานวยการ	-11096
เงื่อนไขข้อตกลง	-11097
จังหวัดบุรีรัมย์	-11098
37	-11099
62	-11100
CN	-11101
DY	-11102
FX	-11103
GS	-11104
JO	-11105
LM	-11106
SQ	-11107
VE	-11108
VR	-11109
gu	-11110
xx	-11111
ถก	-11112
๋น	-11113
-18	-11114
250	-11115
614	-11116
Aut	-11117
Bal	-11118
Cup	-11119
Don	-11120
GMM	-11121
Har	-11122
KER	-11123
Roy	-11124
Saf	-11125
Sil	-11126
TOE	-11127
Tem	-11128
Tim	-11129
USB	-11130
azz	-11131
cos	-11132
ems	-11133
iri	-11134
lim	-11135
php	-11136
rot	-11137
vat	-11138
กี้	-11139
ก็บ	-11140
คูล	-11141
ซิป	-11142
ติว	-11143
นาค	-11144
นาถ	-11145
บอย	-11146
บิว	-11147
ละม	-11148
ล้น	-11149
สตร	-11150
สูท	-11151
อรี	-11152
อิม	-11153
าน์	-11154
ามั	-11155
เคน	-11156
เยน	-11157
เฮง	-11158
ไอศ	-11159
<_>$	-11160
AMED	-11161
Back	-11162
Card	-11163
Chev	-11164
Cons	-11165
Days	-11166
Ford	-11167
From	-11168
Gear	-11169
Hair	-11170
Meet	-11171
Roll	-11172
Trad	-11173
Walk	-11174
ared	-11175
cpap	-11176
does	-11177
here	-11178
long	-11179
requ	-11180
stud	-11181
test	-11182
unch	-11183
ures	-11184
กลอน	-11185
กลไก	-11186
การะ	-11187
ขนุน	-11188
ด้าม	-11189
ตกใจ	-11190
ผมจะ	-11191
พี่ๆ	-11192
มิ่ง	-11193
ย้อม	-11194
หารถ	-11195
อาวุ	-11196
าราช	-11197
ุญาต	-11198
ูกัด	-11199
เรย์	-11200
แล้ง	-11201
โด่ง	-11202
โยธา	-11203
)<_>6	-11204
-6<_>	-11205
<_>31	-11206
<_>60	-11207
<_>80	-11208
ATION	-11209
Board	-11210
Mazda	-11211
Short	-11212
acing	-11213
apore	-11214
conom	-11215
kadın	-11216
store	-11217
ขนของ	-11218
ของดี	-11219
คะนอง	-11220
คูปอง	-11221
จอภาพ	-11222
จะส่ง	-11223
ทุกระ	-11224
นุษย์	-11225
ฝนฟ้า	-11226
พอยท์	-11227
มพันธ	-11228
มารวม	-11229
วัยวะ	-11230
วิเศษ	-11231
สําปะ	-11232
อาลัย	-11233
เจ้าน	-11234
เซิร์	-11235
เรียว	-11236
เฮาส์	-11237
แต่ผม	-11238
โรนัล	-11239
ไปไหน	-11240
▁Home	-11241
▁บ้าน	-11242
Admiss	-11243
Comedy	-11244
Netfli	-11245
Nissan	-11246
Toyota	-11247
itsuka	-11248
rights	-11249
search	-11250
กลูต้า	-11251
กู้ภัย	-11252
ของใคร	-11253
คนนั้น	-11254
คเกอร์	-11255
ซักผ้า	-11256
ดูแล้ว	-11257
ต่างก็	-11258
ต่างหู	-11259
ถามว่า	-11260
ถึงที่	-11261
ทับทิม	-11262
ทางเรา	-11263
ที่นอน	-11264
นัดนี้	-11265
บนเว็บ	-11266
บัวทอง	-11267
ปกคลุม	-11268
ฝึกสอน	-11269
พวกมัน	-11270
พัฒนาม	-11271
มหาราช	-11272
มะม่วง	-11273
มาสด้า	-11274
รับมอบ	-11275
วัดป่า	-11276
สบายใจ	-11277
สาวไทย	-11278
สําโรง	-11279
หรือมี	-11280
อสังหา	-11281
อะไรดี	-11282
อาจถูก	-11283
เงางาม	-11284
เล่นใน	-11285
แซลมอน	-11286
และทีม	-11287
ในพุทธ	-11288
ในสนาม	-11289
ในสมัย	-11290
ไซเคิล	-11291
ได้ไม่	-11292
ไปเป็น	-11293
ไอน้ํา	-11294
็คชั่น	-11295
<_>2559	-11296
clusive	-11297
venture	-11298
กันครับ	-11299
กันเถอะ	-11300
ขณะหลับ	-11301
ขนาดนี้	-11302
ขึ้นนํา	-11303
ความสวย	-11304
จากค่าย	-11305
จากทั่ว	-11306
ตรงข้าม	-11307
ต้องไม่	-11308
ที่นิยม	-11309
ทุกกรณี	-11310
บ้านเรา	-11311
ผู้ต้อง	-11312
ผู้แต่ง	-11313
พลเรือน	-11314
มีนบุรี	-11315
ราคาที่	-11316
รุ่นนี้	-11317
อย่างมี	-11318
เป็นนัก	-11319
เราจะมา	-11320
เวลานาน	-11321
เสรีภาพ	-11322
แต่กลับ	-11323
แสดงออก	-11324
ใบเสร็จ	-11325
<_>1<_>(	-11326
<_>3.<_>	-11327
<_>34<_>	-11328
<_>42<_>	-11329
Inverter	-11330
Official	-11331
Training	-11332
กระเป๋าส	-11333
คาดว่าจะ	-11334
ที่ปรากฎ	-11335
ธยมศึกษา	-11336
น้อยกว่า	-11337
พิธีกรรม	-11338
พุทธมณฑล	-11339
มีข้อมูล	-11340
มีลักษณะ	-11341
ลงในช่อง	-11342
ศาลากลาง	-11343
หน้าเว็บ	-11344
หอการค้า	-11345
เข้มแข็ง	-11346
เข้าไปใน	-11347
เพื่อมอบ	-11348
เหล็กดัด	-11349
แจ้งความ	-11350
แชมเปียน	-11351
และเพิ่ม	-11352
แห่งกรรม	-11353
ในขณะนี้	-11354
ในบริเวณ	-11355
▁ทั้งหมด	-11356
<_>400<_>	-11357
Chevrolet	-11358
กันได้เลย	-11359
ความอร่อย	-11360
คําอธิบาย	-11361
งานเลี้ยง	-11362
ถุงยังชีพ	-11363
ทองเหลือง	-11364
นิยมวิทยา	-11365
บทความที่	-11366
รถรับจ้าง	-11367
รัชกาลที่	-11368
รายการนี้	-11369
ล่าสุดของ	-11370
สไตล์ใหม่	-11371
ออมทรัพย์	-11372
อําเภอโนน	-11373
เครื่องกล	-11374
เบอร์มงคล	-11375
แบ่งกลุ่ม	-11376
และติดตาม	-11377
ในร่างกาย	-11378
การนําเสนอ	-11379
ของชําร่วย	-11380
ความทรงจํา	-11381
ถ้าหากท่าน	-11382
ที่แท้จริง	-11383
ผู้นําเข้า	-11384
ฝนฟ้าคะนอง	-11385
พระราชกุศล	-11386
สหภาพยุโรป	-11387
สอบแข่งขัน	-11388
หรือรูปภาพ	-11389
ออนไลน์ฟรี	-11390
อาชีพอื่นๆ	-11391
เพื่อนําไป	-11392
เหมาะสมกับ	-11393
และปริมณฑล	-11394
แหล่งที่มา	-11395
โอกาสในการ	-11396
▁กําหนดการ	-11397
การปรับปรุง	-11398
ของนักเรียน	-11399
ครอบคลุมทุก	-11400
ซึ่งเป็นการ	-11401
ด้วยชิ้นงาน	-11402
ถนนพหลโยธิน	-11403
ทําเว็บไซต์	-11404
น้ําหนักเบา	-11405
ประยุกต์ใช้	-11406
หนังสือเล่ม	-11407
เป็นผู้ผลิต	-11408
เมื่อวานนี้	-11409
และปรับปรุง	-11410
ของสํานักงาน	-11411
ความเป็นเลิศ	-11412
ที่เกี่ยวกับ	-11413
สินค้ามือสอง	-11414
เข้าเยี่ยมชม	-11415
เบอร์สวยมงคล	-11416
เพื่อตอบสนอง	-11417
และการออกแบบ	-11418
และผลิตภัณฑ์	-11419
ในการเดินทาง	-11420
การศึกษาประถม	-11421
ขอความร่วมมือ	-11422
คณะศิลปศาสตร์	-11423
จังหวัดภูเก็ต	-11424
ประกาศซื้อขาย	-11425
มีความประสงค์	-11426
มูลนิธิไทยรัฐ	-11427
หากคุณต้องการ	-11428
เครื่องจักรกล	-11429
เป็นที่รู้จัก	-11430
เพื่อจะทําการ	-11431
เพื่อใช้ในการ	-11432
ในเว็บไซต์นี้	-11433
ของมหาวิทยาลัย	-11434
ทางวิทยาศาสตร์	-11435
ระดับปริญญาตรี	-11436
และความปลอดภัย	-11437
เกี่ยวกับไทยรัฐ	-11438
แขวงทุ่งสองห้อง	-11439
และการสาธารณสุข	-11440
ในการดําเนินงาน	-11441
กฎหมายและศีลธรรม	-11442
บริการข่าวไทยรัฐ	-11443
ประกาศรายชื่อผู้	-11444
วิจัยและนวัตกรรม	-11445
หยุดหายใจขณะหลับ	-11446
BU	-11447
Mr	-11448
Ry	-11449
ca	-11450
hr	-11451
mi	-11452
ux	-11453
uz	-11454
มธ	-11455
ี๊	-11456
๊อ	-11457
๋า	-11458
▁K	-11459
,99	-11460
622	-11461
ARD	-11462
DIY	-11463
Gel	-11464
Ger	-11465
IOS	-11466
ITH	-11467
Mid	-11468
Pot	-11469
Suk	-11470
aby	-11471
aly	-11472
ful	-11473
nav	-11474
oon	-11475
pri	-11476
ret	-11477
ura	-11478
กรร	-11479
กาส	-11480
ก้น	-11481
ขอก	-11482
คอบ	-11483
ชาต	-11484
ทุบ	-11485
บทด	-11486
ปลั	-11487
ปัส	-11488
ผุด	-11489
ฝืน	-11490
ยาล	-11491
วี่	-11492
สปี	-11493
หิม	-11494
หุบ	-11495
อัย	-11496
เฉย	-11497
เป้	-11498
เฟร	-11499
เลิ	-11500
เอว	-11501
ไวน	-11502
Alph	-11503
Bill	-11504
DLTV	-11505
Linu	-11506
MBER	-11507
Real	-11508
Talk	-11509
Tele	-11510
arma	-11511
char	-11512
cond	-11513
face	-11514
ible	-11515
ling	-11516
news	-11517
tegr	-11518
than	-11519
ture	-11520
กรกฏ	-11521
กวาด	-11522
คลอด	-11523
จมูก	-11524
จิ้ง	-11525
ดอร์	-11526
ด้าย	-11527
ป่วน	-11528
พลอย	-11529
มีผล	-11530
รีย์	-11531
รู้อ	-11532
ลงบน	-11533
วิวา	-11534
ศุลก	-11535
หิมะ	-11536
ออแก	-11537
างค์	-11538
าร์ค	-11539
ีเมล	-11540
เขาส	-11541
เจีย	-11542
เดสล	-11543
เทรน	-11544
เนย์	-11545
เม็ก	-11546
โซลู	-11547
ไพร์	-11548
▁หาก	-11549
",<_>	-11550
1)<_>	-11551
52<_>	-11552
<_>0.	-11553
Advan	-11554
Cyber	-11555
Norsk	-11556
Stamp	-11557
Teach	-11558
ampoo	-11559
anian	-11560
autom	-11561
azine	-11562
ffect	-11563
inner	-11564
ookie	-11565
rough	-11566
tract	-11567
กดดัน	-11568
ของปี	-11569
คําขอ	-11570
ชาร์ต	-11571
ซื้อง	-11572
ดีงาม	-11573
ตัวชี	-11574
นิวส์	-11575
นิเวศ	-11576
ปริ้น	-11577
ปากกา	-11578
ผมได้	-11579
พฤกษ์	-11580
พาร์ท	-11581
มาทํา	-11582
ยันต์	-11583
สภากา	-11584
อกจาก	-11585
อกว่า	-11586
อะไรม	-11587
ฮือฮา	-11588
ักเตะ	-11589
ืองาน	-11590
เขาจะ	-11591
เคาน์	-11592
เซียม	-11593
เด็ดๆ	-11594
เนี่ย	-11595
เยาว์	-11596
เลยนะ	-11597
เอสซี	-11598
โอทอป	-11599
Moodle	-11600
commer	-11601
master	-11602
provid	-11603
widget	-11604
กระปุก	-11605
การที่	-11606
คอร์ปอ	-11607
คุณครู	-11608
จะถูกล	-11609
ถนนสาย	-11610
ถึงการ	-11611
ทางออก	-11612
ทีมดัง	-11613
นัดที่	-11614
บัดนี้	-11615
พลาซ่า	-11616
มากค่ะ	-11617
มานั้น	-11618
มีอยู่	-11619
รอบตัว	-11620
รัฐประ	-11621
วัดท่า	-11622
วันแม่	-11623
วิลล่า	-11624
สังหาร	-11625
ส่วนใด	-11626
อวัยวะ	-11627
อินดี้	-11628
เหมือง	-11629
แข่งรถ	-11630
แยกทาง	-11631
และถูก	-11632
และทํา	-11633
และฟัง	-11634
และอีก	-11635
โดยทาง	-11636
ใช่ไหม	-11637
ในชื่อ	-11638
ในท้อง	-11639
▁ศูนย์	-11640
<_>2015	-11641
<_>2564	-11642
contact	-11643
content	-11644
continu	-11645
current	-11646
ของหวาน	-11647
ของเด็ก	-11648
ข่าวว่า	-11649
ความลับ	-11650
ค่าจ้าง	-11651
จริงจัง	-11652
จักรวาล	-11653
ซึ่งทาง	-11654
ซื้อของ	-11655
ด้วยค่ะ	-11656
ตอนนั้น	-11657
ตัดเย็บ	-11658
ตัวเต็ม	-11659
ตัวเป็น	-11660
ทรงพลัง	-11661
ทั้งแบบ	-11662
ที่จะมา	-11663
ทุกสาขา	-11664
นามสกุล	-11665
บุนเดสล	-11666
ปลูกผัก	-11667
พิธีมอบ	-11668
ภาษาจีน	-11669
มากครับ	-11670
มิเตอร์	-11671
ล้างออก	-11672
ศุลกากร	-11673
สวนหลวง	-11674
สัมพันธ	-11675
หรือยัง	-11676
อีกแล้ว	-11677
อ่อนนุช	-11678
ีกครั้ง	-11679
เก็บไว้	-11680
เจ็บปวด	-11681
เฟสบุ๊ค	-11682
เห็นว่า	-11683
แนะนําร	-11684
แรกเกิด	-11685
โด่งดัง	-11686
ใช้น้ํา	-11687
ไปดูกัน	-11688
้อยกว่า	-11689
▁เรื่อง	-11690
,000,000	-11691
<_>44<_>	-11692
<_>49<_>	-11693
Document	-11694
Japanese	-11695
Security	-11696
ความชื้น	-11697
คําเตือน	-11698
ดั้งเดิม	-11699
ดาวเทียม	-11700
ดีลพิเศษ	-11701
ด้วยเหตุ	-11702
ตัวเมือง	-11703
ถูกแก้ไข	-11704
บ้านเช่า	-11705
รักษาการ	-11706
ละครช่อง	-11707
วรรณกรรม	-11708
สงขลานคร	-11709
หน้าท้อง	-11710
หมายเหตุ	-11711
อยู่บ้าน	-11712
ออกมาจาก	-11713
เติมเต็ม	-11714
เสียภาษี	-11715
แชร์กแมง	-11716
และยังมี	-11717
โรมาเนีย	-11718
ในตํานาน	-11719
▁เครื่อง	-11720
Animation	-11721
Singapore	-11722
copyright	-11723
จัดทําโดย	-11724
จากบริษัท	-11725
ติดตามและ	-11726
ตู้โชว์ใน	-11727
ถนนพระราม	-11728
ทุกเรื่อง	-11729
ทําไมต้อง	-11730
น่าจะเป็น	-11731
ประกอบกับ	-11732
ประกาศฟรี	-11733
ผิดกฎหมาย	-11734
ภาพลักษณ์	-11735
ศตวรรษที่	-11736
สติกเกอร์	-11737
สําปะหลัง	-11738
หลอดเลือด	-11739
อย่างหนัก	-11740
เก็บสถิติ	-11741
เมื่อช่วง	-11742
เมื่อไหร่	-11743
แนวข้อสอบ	-11744
แบรนด์เนม	-11745
และได้รับ	-11746
ให้สามารถ	-11747
ให้เครดิต	-11748
ไปเรื่อยๆ	-11749
ไม่มีความ	-11750
ไฮไลท์บอล	-11751
javascript	-11752
การศึกษามั	-11753
ของบริษัทฯ	-11754
ของพื้นที่	-11755
จัดโครงการ	-11756
ที่ท่านได้	-11757
ที่โดดเด่น	-11758
บุนเดสลีกา	-11759
ร่วมมือกับ	-11760
ศูนย์พัฒนา	-11761
หรือติดต่อ	-11762
อีกทั้งยัง	-11763
เครื่องทํา	-11764
เครื่องราง	-11765
เพื่อค้นหา	-11766
และประชาชน	-11767
ในครอบครัว	-11768
ได้หรือไม่	-11769
การก่อสร้าง	-11770
ทัวร์เกาหลี	-11771
ทั้งหมดเป็น	-11772
ทุกครั้งที่	-11773
ประหยัดเงิน	-11774
ภูมิคุ้มกัน	-11775
ราคาน้ํามัน	-11776
ราคาไม่เกิน	-11777
สนับสนุนโดย	-11778
สินค้าขายดี	-11779
เป็นเจ้าภาพ	-11780
แบ่งออกเป็น	-11781
และนวัตกรรม	-11782
และนักเรียน	-11783
ในการประชุม	-11784
การบริหารงาน	-11785
คอร์ปอเรชั่น	-11786
ต่อการใช้งาน	-11787
ที่จะช่วยให้	-11788
นอกจากนี้ยัง	-11789
ประธานาธิบดี	-11790
พระบรมราชินี	-11791
มั่นใจได้ว่า	-11792
ว่าคุณยอมรับ	-11793
สอบถามข้อมูล	-11794
เนื่องจากการ	-11795
และให้บริการ	-11796
และได้รับการ	-11797
การดําเนินการ	-11798
จ้างที่ปรึกษา	-11799
ตกแต่งตู้โชว์	-11800
ตั้งแต่วันนี้	-11801
ติดตามข่าวสาร	-11802
ทรัพยากรบุคคล	-11803
ผ่านตู้โชว์ใน	-11804
ส่งผลกระทบต่อ	-11805
เนื่องจากเป็น	-11806
กลับมาอีกครั้ง	-11807
ค้นพบสไตล์ใหม่	-11808
ด้วยประสบการณ์	-11809
สวิตเซอร์แลนด์	-11810
เกษตรและสหกรณ์	-11811
เกิดอุบัติเหตุ	-11812
เครื่องทําน้ํา	-11813
ประถมศึกษาปีที่	-11814
สอบถามเพิ่มเติม	-11815
เปิดรับสมัครสอบ	-11816
โดยวิธีคัดเลือก	-11817
ได้ทุกที่ทุกเวลา	-11818
▁โปรดเข้าสู่ระบบ	-11819
71	-11820
91	-11821
96	-11822
AE	-11823
AW	-11824
BT	-11825
HA	-11826
NU	-11827
OG	-11828
Tw	-11829
gb	-11830
gd	-11831
hi	-11832
hn	-11833
hu	-11834
ni	-11835
งู	-11836
ณิ	-11837
ิจ	-11838
ิ่	-11839
ุล	-11840
ูท	-11841
โง	-11842
โญ	-11843
๋ม	-11844
-01	-11845
-99	-11846
ADO	-11847
API	-11848
Blu	-11849
Bvl	-11850
Dry	-11851
Fit	-11852
IKO	-11853
INT	-11854
Key	-11855
MHz	-11856
MRT	-11857
ONG	-11858
PAT	-11859
Pay	-11860
Raz	-11861
Ref	-11862
Rew	-11863
URL	-11864
Win	-11865
cor	-11866
ene	-11867
ham	-11868
ner	-11869
org	-11870
xus	-11871
กิต	-11872
ขัง	-11873
ครม	-11874
คอส	-11875
คูณ	-11876
ซอน	-11877
ซาม	-11878
ดึก	-11879
ดู่	-11880
ตรม	-11881
ทิว	-11882
นอม	-11883
ผกก	-11884
ฝอย	-11885
พุท	-11886
พเพ	-11887
มาฆ	-11888
วูด	-11889
หาญ	-11890
หาม	-11891
อัส	-11892
ฮัก	-11893
าคม	-11894
ิดา	-11895
ิโอ	-11896
เชฟ	-11897
เซา	-11898
เซ่	-11899
เมด	-11900
เลอ	-11901
แปะ	-11902
แฝง	-11903
แอค	-11904
<_>^	-11905
ANGK	-11906
Bvlg	-11907
Cool	-11908
Desk	-11909
Deto	-11910
Oper	-11911
Prov	-11912
data	-11913
fact	-11914
made	-11915
reak	-11916
umin	-11917
vieš	-11918
weet	-11919
กภัย	-11920
กรวย	-11921
กลีบ	-11922
ขวาน	-11923
คั่ว	-11924
จุใจ	-11925
ซิลิ	-11926
ด้าว	-11927
ทรวิ	-11928
นามิ	-11929
บกพร	-11930
บ่าว	-11931
ปลุก	-11932
ภรณ์	-11933
ย่อง	-11934
ล่อง	-11935
หมัด	-11936
อากี	-11937
ิน่า	-11938
เผ่า	-11939
แก้ม	-11940
แบริ	-11941
แบ็ก	-11942
แฟ้ม	-11943
แย่ง	-11944
ไทน์	-11945
ไนซ์	-11946
ไปหา	-11947
ไปใน	-11948
▁The	-11949
,<_>5	-11950
07<_>	-11951
33<_>	-11952
44<_>	-11953
56<_>	-11954
6<_>(	-11955
Filip	-11956
Movie	-11957
Terms	-11958
Water	-11959
block	-11960
craft	-11961
ollow	-11962
print	-11963
กร้าน	-11964
กองทั	-11965
กะรัต	-11966
การัง	-11967
คนแรก	-11968
ทะยาน	-11969
น้ําน	-11970
ปลั๊ก	-11971
ผลมวย	-11972
พันธุ	-11973
ฟอร์ด	-11974
มานี้	-11975
มีแต่	-11976
วัฒน์	-11977
วิลล์	-11978
สต๊อก	-11979
สับสน	-11980
สีที่	-11981
หวั่น	-11982
อัธยา	-11983
อายุน	-11984
อิงค์	-11985
เกิร์	-11986
เชือก	-11987
โควตา	-11988
ไม่อน	-11989
ไวนิล	-11990
▁องค์	-11991
.10<_>	-11992
Beauty	-11993
Course	-11994
Dharma	-11995
SMSFAQ	-11996
Sports	-11997
ashion	-11998
estone	-11999
itting	-12000
กับผู้	-12001
ของลูก	-12002
ข่าวสด	-12003
คล้ายๆ	-12004
ตรงกัน	-12005
ถ้าใคร	-12006
ที่ออก	-12007
ทุกภาค	-12008
นัดแรก	-12009
บางบอน	-12010
ผู้สอน	-12011
พฤหัสบ	-12012
มีอะไร	-12013
มีอายุ	-12014
รถบ้าน	-12015
วังทอง	-12016
วันออก	-12017
สารคดี	-12018
สําราญ	-12019
หน้ารถ	-12020
หน้าใส	-12021
อาวุโส	-12022
เรือธง	-12023
แกรนด์	-12024
แสงแดด	-12025
ใช้สอย	-12026
ในทุกๆ	-12027
ในหลวง	-12028
ได้ฟรี	-12029
ไปน้อย	-12030
ไม่ชอบ	-12031
ไล่ออก	-12032
่าสนใจ	-12033
▁Issue	-12034
<_>1024	-12035
Browser	-12036
Bvlgari	-12037
Central	-12038
Contain	-12039
Rewards	-12040
Shampoo	-12041
display	-12042
กลับสู่	-12043
คาดหวัง	-12044
คุณวุฒิ	-12045
ค้าแข้ง	-12046
ดําน้ํา	-12047
ตรงกลาง	-12048
ทั้งที่	-12049
ทั้งปวง	-12050
ที่ระบุ	-12051
ที่เน้น	-12052
ที่เว็บ	-12053
ทุกระบบ	-12054
ท่านได้	-12055
นัดหมาย	-12056
บกพร่อง	-12057
บบุหรี่	-12058
ประพฤติ	-12059
ปรับตัว	-12060
ปะการัง	-12061
ป้ายแดง	-12062
ผิดปกติ	-12063
ฝากข่าว	-12064
ยางหยอด	-12065
ยุคใหม่	-12066
ระบายสี	-12067
ส่งเร็ว	-12068
อาร์เจน	-12069
อุทกภัย	-12070
เด็กชาย	-12071
เรามุ่ง	-12072
เลขท้าย	-12073
เลนไทน์	-12074
แค่นั้น	-12075
แต่งภาพ	-12076
แต่ทว่า	-12077
แอบอ้าง	-12078
ในบอร์ด	-12079
ไม่หยุด	-12080
<_>3<_><	-12081
<_>76<_>	-12082
Advanced	-12083
National	-12084
Onitsuka	-12085
Resource	-12086
comments	-12087
partment	-12088
ribution	-12089
กษัตริย์	-12090
ของตาราง	-12091
ของสโมสร	-12092
ของเมือง	-12093
คณะวิทยา	-12094
คอมเมนต์	-12095
จับตามอง	-12096
ดังอย่าง	-12097
ตลาดหุ้น	-12098
ทางเราจะ	-12099
บริษัทรถ	-12100
พฤหัสบดี	-12101
พุทธธรรม	-12102
ฟอร์เนีย	-12103
ภาคอีสาน	-12104
สภากาชาด	-12105
สมัยใหม่	-12106
สุดมันส์	-12107
หลายท่าน	-12108
อัธยาศัย	-12109
อีเว้นท์	-12110
เกมส์นอก	-12111
เกาะล้าน	-12112
เพลงสากล	-12113
เพื่อใช้	-12114
เรื่องผี	-12115
และชุมชน	-12116
และเพื่อ	-12117
ในฤดูกาล	-12118
ในองค์กร	-12119
<_>123<_>	-12120
Pinterest	-12121
การจัดทํา	-12122
การติดต่อ	-12123
คริสติน่า	-12124
ช่วยในการ	-12125
ตกแต่งสวน	-12126
ตารางแสดง	-12127
ตําบลหนอง	-12128
ทางอีเมล์	-12129
ที่ทํางาน	-12130
ที่มีอยู่	-12131
บังคับใช้	-12132
ผู้กํากับ	-12133
รับส่วนลด	-12134
สรุปผลการ	-12135
สื่อมวลชน	-12136
หน่อยครับ	-12137
อากีล่าร์	-12138
อําเภอบาง	-12139
เชื่อมั่น	-12140
และรูปภาพ	-12141
ให้เราใช้	-12142
<_>2537<_>	-12143
Categories	-12144
กรรมสิทธิ์	-12145
กระดานข่าว	-12146
ครั้งต่อไป	-12147
ตลับลูกปืน	-12148
ระบายอากาศ	-12149
รายชื่อผู้	-12150
ล้านพิกเซล	-12151
สร้างสังคม	-12152
เพื่อนบ้าน	-12153
เรียบเรียง	-12154
และความงาม	-12155
และจะมีการ	-12156
แสดงสินค้า	-12157
โปรแกรมบอล	-12158
ในการค้นหา	-12159
ได้อีกด้วย	-12160
<_>10.00<_>	-12161
Corporation	-12162
คณะรัฐมนตรี	-12163
จากธรรมชาติ	-12164
จุดเริ่มต้น	-12165
ที่ยิ่งใหญ่	-12166
ที่เกิดเหตุ	-12167
บุหรี่ไฟฟ้า	-12168
ปีที่ผ่านมา	-12169
ผู้บัญชาการ	-12170
พระจอมเกล้า	-12171
มูลค่าเพิ่ม	-12172
และแต่งตั้ง	-12173
ในการติดต่อ	-12174
ในเรื่องของ	-12175
ได้หลากหลาย	-12176
<_>1-2551<_>	-12177
ความเป็นจริง	-12178
จังหวัดสงขลา	-12179
จํานวนจํากัด	-12180
ประเมินผลการ	-12181
รวบรวมข้อมูล	-12182
วันวิสาขบูชา	-12183
วันเข้าพรรษา	-12184
หน้าเว็บไซต์	-12185
อย่างใกล้ชิด	-12186
เป็นอีกหนึ่ง	-12187
แคลิฟอร์เนีย	-12188
และที่สําคัญ	-12189
ไม่ชําระเงิน	-12190
การกํากับดูแล	-12191
จังหวัดชายแดน	-12192
สงขลานครินทร์	-12193
เปิดการใช้งาน	-12194
เมื่อเทียบกับ	-12195
เลขเด็ดงวดนี้	-12196
แชมเปียนส์ลีก	-12197
ได้แล้ววันนี้	-12198
ทํางานได้อย่าง	-12199
ปฏิบัติหน้าที่	-12200
รัฐมนตรีว่าการ	-12201
DateTitleAuthor	-12202
จังหวัดเชียงราย	-12203
จังหวัดเพชรบุรี	-12204
สถานภาพนักศึกษา	-12205
เป็นเครื่องหมาย	-12206
กรมการพัฒนาชุมชน	-12207
ดูการ์ตูนออนไลน์	-12208
ทําการเก็บข้อมูล	-12209
มีการเปลี่ยนแปลง	-12210
แผนพัฒนาท้องถิ่น	-12211
ให้ความช่วยเหลือ	-12212
64	-12213
CK	-12214
Ev	-12215
Gl	-12216
HR	-12217
HY	-12218
IL	-12219
Mi	-12220
NS	-12221
TF	-12222
cy	-12223
vo	-12224
ye	-12225
จป	-12226
ชด	-12227
วอ	-12228
โธ	-12229
๊ง	-12230
๋อ	-12231
๗๗	-12232
▁A	-12233
400	-12234
ALA	-12235
Cur	-12236
Ext	-12237
GAT	-12238
HTC	-12239
Ill	-12240
Inf	-12241
MBA	-12242
SAN	-12243
SEB	-12244
SER	-12245
VER	-12246
Ver	-12247
WOR	-12248
Wik	-12249
ait	-12250
asp	-12251
bel	-12252
clo	-12253
den	-12254
his	-12255
loc	-12256
non	-12257
ote	-12258
raw	-12259
sak	-12260
soc	-12261
จยย	-12262
ชรา	-12263
ชาม	-12264
ช่น	-12265
ซอม	-12266
ตัง	-12267
ฟัล	-12268
ล้า	-12269
วอน	-12270
อวย	-12271
ฮ่า	-12272
ะไร	-12273
าสา	-12274
ิ่ล	-12275
เลก	-12276
เล่	-12277
เหว	-12278
แบก	-12279
แอต	-12280
โรฒ	-12281
โว่	-12282
ไดร	-12283
ๆก็	-12284
Hugg	-12285
Prem	-12286
Type	-12287
WITH	-12288
Year	-12289
^<_>	-12290
aler	-12291
amin	-12292
appl	-12293
code	-12294
cret	-12295
deli	-12296
file	-12297
good	-12298
hold	-12299
ield	-12300
make	-12301
rain	-12302
ruit	-12303
self	-12304
tran	-12305
ways	-12306
กระด	-12307
กรีซ	-12308
คั่ง	-12309
จุ้ย	-12310
ฉลาก	-12311
ซูกิ	-12312
ดิ้น	-12313
ทีละ	-12314
ประท	-12315
ผมมี	-12316
พุ่ม	-12317
ภาคี	-12318
มันๆ	-12319
มั่ง	-12320
มาใน	-12321
ราชน	-12322
รูปล	-12323
ร้าง	-12324
ษฐาน	-12325
สถลม	-12326
สรณ์	-12327
สู่อ	-12328
อิตา	-12329
อุ้ม	-12330
ฮอร์	-12331
ื้อน	-12332
เคาะ	-12333
เดลิ	-12334
เต้า	-12335
เทพี	-12336
เฮีย	-12337
เเบบ	-12338
แท่น	-12339
แท้ง	-12340
แพ็ก	-12341
แม็ก	-12342
โดรม	-12343
โน๊ต	-12344
โฟร์	-12345
โมเด	-12346
โมเล	-12347
โยคะ	-12348
ไปชม	-12349
"<_>"	-12350
21<_>	-12351
91<_>	-12352
94<_>	-12353
<_>3,	-12354
<_>5,	-12355
BANGK	-12356
Block	-12357
COLOR	-12358
Champ	-12359
Dansk	-12360
Elite	-12361
MORPG	-12362
Mater	-12363
Omnia	-12364
Plook	-12365
Trade	-12366
Women	-12367
clean	-12368
ender	-12369
fault	-12370
video	-12371
กล่อม	-12372
กับคน	-12373
กับมี	-12374
การมี	-12375
ฎหมาย	-12376
ตะลึง	-12377
ต่อปี	-12378
ถมดิน	-12379
ทักษ์	-12380
ธงชัย	-12381
ภาชนะ	-12382
มงกุฎ	-12383
ระทู้	-12384
รัตน์	-12385
ร่ําร	-12386
ลิฟท์	-12387
ศรีไค	-12388
สักที	-12389
ักสืบ	-12390
เซราม	-12391
เฟือง	-12392
เอฟเอ	-12393
แต่พอ	-12394
แม่นๆ	-12395
แอนดร	-12396
โทรหา	-12397
ในนาม	-12398
ไปติด	-12399
ไปให้	-12400
่อยาก	-12401
200<_>	-12402
:30<_>	-12403
<_>18+	-12404
Amazon	-12405
Integr	-12406
Korean	-12407
Player	-12408
Secret	-12409
Switch	-12410
United	-12411
edding	-12412
engine	-12413
latest	-12414
legend	-12415
orized	-12416
screen	-12417
กันค่ะ	-12418
กันที่	-12419
กาตาร์	-12420
ขนมปัง	-12421
ของจีน	-12422
จากงาน	-12423
จีเรีย	-12424
ดาวเตะ	-12425
ดินแดง	-12426
ถุงมือ	-12427
ถูกนํา	-12428
ถูกหวย	-12429
ทะลึ่ง	-12430
ที่กิน	-12431
ที่ยัง	-12432
น้อยลง	-12433
บทดลอง	-12434
ปีก่อน	-12435
ปีหน้า	-12436
ฝึกงาน	-12437
พิธีกร	-12438
พ่อค้า	-12439
ราคารถ	-12440
วงจุ้ย	-12441
สายยาง	-12442
สารพิษ	-12443
อัยการ	-12444
อื่นใด	-12445
อุบาสก	-12446
ารักษ์	-12447
เฟิร์น	-12448
แต่เรา	-12449
แบริ่ง	-12450
แพคเกจ	-12451
และนํา	-12452
ได้ลอง	-12453
ได้แบบ	-12454
▁เกมส์	-12455
622<_>(	-12456
<_>-256	-12457
<_>1000	-12458
<_>2022	-12459
Hosting	-12460
Huggies	-12461
SEBAMED	-12462
กรกฏาคม	-12463
กรุงศรี	-12464
กันหนาว	-12465
ก้าวไกล	-12466
ข่าวเกม	-12467
ความสูง	-12468
ฆาตกรรม	-12469
ชิ้นนี้	-12470
ชุดแต่ง	-12471
ซินโดรม	-12472
ตัวเก่ง	-12473
ถนนสถลม	-12474
ทางรถไฟ	-12475
ทิ้งไว้	-12476
น้ําและ	-12477
นําร่อง	-12478
ประเดิม	-12479
พบปัญหา	-12480
พิทักษ์	-12481
มหามงคล	-12482
ราคาส่ง	-12483
วงดนตรี	-12484
สอบผ่าน	-12485
สาวน้อย	-12486
สาวรีย์	-12487
สินค้าน	-12488
หมดอายุ	-12489
หรือปิด	-12490
หลวงปู่	-12491
เขาใหญ่	-12492
เปิดรับ	-12493
เป็นงาน	-12494
เพลงนี้	-12495
เมียนมา	-12496
เมื่อมี	-12497
เยอะมาก	-12498
เยียวยา	-12499
เวปไซต์	-12500
เอสซีจี	-12501
แต่ละคน	-12502
แนะนําน	-12503
แปลภาษา	-12504
แห่งแรก	-12505
โมเลกุล	-12506
ใช้แล้ว	-12507
ให้แก่น	-12508
ได้บ้าง	-12509
ได้เปิด	-12510
ไปอย่าง	-12511
ไม่ทราบ	-12512
001-8<_>	-12513
<_>34190	-12514
<_>37<_>	-12515
Electric	-12516
Hairloss	-12517
business	-12518
internet	-12519
ก็ว่าได้	-12520
ของบุคคล	-12521
ข่าวด่วน	-12522
ด้านซ้าย	-12523
ตัวเรือน	-12524
ต่างด้าว	-12525
ทรูพอยท์	-12526
ที่จะได้	-12527
ที่นํามา	-12528
ที่เลือก	-12529
ทุกระดับ	-12530
ทุกๆท่าน	-12531
ทํางานใน	-12532
นอกเหนือ	-12533
ผู้เรียน	-12534
พรีเมียม	-12535
พัฒนาและ	-12536
รถโดยสาร	-12537
ห้องครัว	-12538
ออกซิเจน	-12539
ออแกไนซ์	-12540
เกมส์ไทย	-12541
เก็บน้ํา	-12542
เข้าเป็น	-12543
เพราะเรา	-12544
เสริมดวง	-12545
เห็นด้วย	-12546
และศูนย์	-12547
โดยมีการ	-12548
ใช้เพื่อ	-12549
ในพระราช	-12550
ไปกับการ	-12551
<_>1.5<_>	-12552
Adventure	-12553
RewardsTM	-12554
ของการวัด	-12555
ของข้อมูล	-12556
ของธุรกิจ	-12557
คอนเฟิร์ม	-12558
งานบริการ	-12559
จินตนาการ	-12560
ชํานาญการ	-12561
ทําให้เรา	-12562
น้ํากลั่น	-12563
ประชุมสภา	-12564
ประเทศจีน	-12565
ประเภทนี้	-12566
พันธุกรรม	-12567
ลวดตาข่าย	-12568
วาเลนไทน์	-12569
สวัสดิภาพ	-12570
หากท่านพบ	-12571
อัตราส่วน	-12572
เป็นเกมส์	-12573
เพราะเป็น	-12574
และกิจการ	-12575
ในกิจกรรม	-12576
▁ขอขอบคุณ	-12577
การติดตั้ง	-12578
กิจกรรมที่	-12579
คมชัดระดับ	-12580
ครีมกันแดด	-12581
จากทั้งหมด	-12582
ฉีดพลาสติก	-12583
ซ่อมบํารุง	-12584
ที่มีปัญหา	-12585
บรรณาธิการ	-12586
บางส่วนของ	-12587
ปลูกต้นไม้	-12588
ภาคตะวันตก	-12589
รองเท้าแตะ	-12590
สวัสดีครับ	-12591
ส่วนผสมของ	-12592
หน้าจอขนาด	-12593
อ้างอิงจาก	-12594
อําเภอบ้าน	-12595
เครื่องคิด	-12596
และเผยแพร่	-12597
ในโรงเรียน	-12598
ให้ถูกต้อง	-12599
ได้ตามปกติ	-12600
<_>12.00<_>	-12601
<_>3<_>-<_>	-12602
information	-12603
ขอขอบพระคุณ	-12604
ความเร็วสูง	-12605
ความเหมาะสม	-12606
งานประดิษฐ์	-12607
จะได้รับการ	-12608
ถนนสถลมาร์ค	-12609
ทางเศรษฐกิจ	-12610
ทีมงานจะได้	-12611
ที่เรียกว่า	-12612
ผู้ติดเชื้อ	-12613
ผู้เยี่ยมชม	-12614
ราชวิทยาลัย	-12615
หรือต้องการ	-12616
เคลื่อนย้าย	-12617
เสริมสุขภาพ	-12618
โรคซึมเศร้า	-12619
ให้ดีที่สุด	-12620
ให้นักเรียน	-12621
ของผู้บริโภค	-12622
ที่เพิ่มขึ้น	-12623
ปรับปรุงระบบ	-12624
มันสําปะหลัง	-12625
สื่อสารมวลชน	-12626
สําหรับคนที่	-12627
อย่าหลงเชื่อ	-12628
เป็นกําลังใจ	-12629
กระบวนการผลิต	-12630
ขายบ้านเดี่ยว	-12631
จังหวัดนครปฐม	-12632
จังหวัดลําพูน	-12633
ทั่วประเทศไทย	-12634
ประธานกรรมการ	-12635
ประสบการณ์การ	-12636
รอบรองชนะเลิศ	-12637
สื่อสิ่งพิมพ์	-12638
เวอร์ชั่นใหม่	-12639
ในบอร์ดนี้ได้	-12640
ให้การต้อนรับ	-12641
จากมหาวิทยาลัย	-12642
ชั่วโมงหน้าแรก	-12643
มอบเกียรติบัตร	-12644
อุปกรณ์ถ่ายภาพ	-12645
เพื่อสร้างความ	-12646
001-8<_>622<_>(	-12647
ตําบลเมืองศรีไค	-12648
โปรแกรมแปลงไฟล์	-12649
ประวัติและปฏิปทา	-12650
วิธีการชําระเงิน	-12651
เพื่อทีมงานจะได้	-12652
และประชาสัมพันธ์	-12653
ไม่เสียค่าบริการ	-12654
.7	-12655
07	-12656
BY	-12657
GP	-12658
HP	-12659
Ke	-12660
TI	-12661
Ve	-12662
XM	-12663
gl	-12664
pm	-12665
งะ	-12666
ษฏ	-12667
สศ	-12668
▁M	-12669
.30	-12670
7-9	-12671
ACT	-12672
Bur	-12673
But	-12674
CPU	-12675
Che	-12676
Cru	-12677
EDT	-12678
Ele	-12679
GIN	-12680
God	-12681
Hol	-12682
Hom	-12683
INA	-12684
ITE	-12685
Pal	-12686
TNN	-12687
Tes	-12688
Thr	-12689
Van	-12690
Wal	-12691
apt	-12692
bed	-12693
bnb	-12694
bps	-12695
err	-12696
iam	-12697
ild	-12698
lar	-12699
lik	-12700
men	-12701
nor	-12702
osc	-12703
unk	-12704
uvi	-12705
vey	-12706
คคี	-12707
จีบ	-12708
จืด	-12709
ชัญ	-12710
บูม	-12711
ปรี	-12712
ผบก	-12713
รษะ	-12714
ลิก	-12715
สแป	-12716
ส่อ	-12717
หมี	-12718
ายุ	-12719
เปา	-12720
เล็	-12721
แขม	-12722
แผ่	-12723
แสต	-12724
แอก	-12725
โขง	-12726
โนะ	-12727
โป๊	-12728
โพร	-12729
โมน	-12730
็อบ	-12731
Body	-12732
Brow	-12733
Euro	-12734
FIVE	-12735
Face	-12736
Farm	-12737
Form	-12738
Hero	-12739
List	-12740
Long	-12741
OPPO	-12742
Turk	-12743
case	-12744
cell	-12745
door	-12746
just	-12747
over	-12748
pack	-12749
ries	-12750
กิ้ง	-12751
ข่มข	-12752
ครู่	-12753
คลาน	-12754
จบลง	-12755
ฉนวน	-12756
ซีดี	-12757
ทลาย	-12758
นิวย	-12759
ปิ่น	-12760
ป๊อก	-12761
พงษ์	-12762
พียู	-12763
ฟฟี่	-12764
มาหา	-12765
ลีย์	-12766
วจีน	-12767
วอร์	-12768
สตัด	-12769
สมูท	-12770
สรวง	-12771
สีลม	-12772
หลาง	-12773
ห้อย	-12774
ฮั่น	-12775
านี้	-12776
าหาร	-12777
฿<_>	-12778
เจ็ท	-12779
เพลา	-12780
เอิญ	-12781
เอไอ	-12782
แฟร์	-12783
แฮรา	-12784
แฮร์	-12785
โคลน	-12786
ใจดี	-12787
ไดร์	-12788
ไลค์	-12789
้องๆ	-12790
,<_>3	-12791
-9<_>	-12792
43<_>	-12793
:<_>@	-12794
<_>41	-12795
>'<_>	-12796
><_>3	-12797
Autom	-12798
First	-12799
Fruit	-12800
Lexus	-12801
Pants	-12802
amaha	-12803
atalà	-12804
berry	-12805
motor	-12806
scape	-12807
smart	-12808
viešu	-12809
กว่าน	-12810
ของตน	-12811
ขายรถ	-12812
จะหมด	-12813
ตลิ่ง	-12814
ถึงจะ	-12815
นี้ไป	-12816
บัลแก	-12817
ภูมิต	-12818
ลาออก	-12819
ลีดส์	-12820
ศีรษะ	-12821
สัตย์	-12822
หันมา	-12823
หาคู่	-12824
อัคคี	-12825
ืนยัน	-12826
เช่าร	-12827
เดียม	-12828
เตาอบ	-12829
เถียง	-12830
เนปาล	-12831
แต่จะ	-12832
แฮนด์	-12833
โซนี่	-12834
โปเกม	-12835
โมงค์	-12836
ในจีน	-12837
ในฝัน	-12838
ในรูป	-12839
ไปจาก	-12840
▁ด้วย	-12841
,<_>09	-12842
.00-16	-12843
.61<_>	-12844
007<_>	-12845
<_>105	-12846
Airbnb	-12847
Dragon	-12848
Horror	-12849
MMORPG	-12850
Number	-12851
Record	-12852
Resort	-12853
WeLove	-12854
ersion	-12855
estern	-12856
iction	-12857
ietuvi	-12858
remove	-12859
server	-12860
travel	-12861
window	-12862
ของกิน	-12863
ขายตัว	-12864
ข่าวดี	-12865
ข้อคิด	-12866
ควบคู่	-12867
จัดโดย	-12868
จิสติก	-12869
จํานํา	-12870
จําเลย	-12871
ถุงยาง	-12872
ทศวรรษ	-12873
ที่ขาย	-12874
ที่นํา	-12875
ที่วาง	-12876
ทุ่มเท	-12877
นิพนธ์	-12878
บีเอ็ม	-12879
ประเวศ	-12880
มาตลอด	-12881
มิวสิค	-12882
รอบคอบ	-12883
รับตรง	-12884
รูปที่	-12885
ลเลอร์	-12886
สัมชัญ	-12887
สารพัด	-12888
สิ่งใด	-12889
สีม่วง	-12890
หาเงิน	-12891
อดนิยม	-12892
ฮังการ	-12893
เซรั่ม	-12894
เด็กใน	-12895
เบิร์น	-12896
เปี่ยม	-12897
เลขดัง	-12898
เลยจ้า	-12899
แกนนํา	-12900
แต่มัน	-12901
แรงม้า	-12902
และคณะ	-12903
และภาพ	-12904
โดยให้	-12905
ในกรุง	-12906
ให้ฟัง	-12907
ให้หมด	-12908
ไม่ติด	-12909
▁สมาคม	-12910
...<_>★	-12911
<_>2021	-12912
<_>2558	-12913
<_>@<_>	-12914
><_>201	-12915
BANGKOK	-12916
Macbook	-12917
Mystery	-12918
Publish	-12919
Reading	-12920
android	-12921
ireless	-12922
program	-12923
ructure	-12924
storage	-12925
กันเป็น	-12926
คนพิการ	-12927
คลองสาน	-12928
ความสงบ	-12929
ค่ําคืน	-12930
งบทดลอง	-12931
จากซ้าย	-12932
ชาเขียว	-12933
ซิลิโคน	-12934
ซีเกมส์	-12935
ทรวิโรฒ	-12936
ทะเลสาบ	-12937
ทําเลดี	-12938
บทสนทนา	-12939
บังเอิญ	-12940
บําเพ็ญ	-12941
ผ้าอ้อม	-12942
มาฆบูชา	-12943
รมนุษย์	-12944
ร่ํารวย	-12945
ร้ายแรง	-12946
ฤดูหนาว	-12947
ส่วนใหญ	-12948
หน้าแปล	-12949
หรือทํา	-12950
อลังการ	-12951
อะไรมาก	-12952
ฮังการี	-12953
ุญาตให้	-12954
ูปถัมภ์	-12955
เขานั้น	-12956
เข้าออก	-12957
เจาะลึก	-12958
เปรี้ยว	-12959
และราคา	-12960
แอฟริกา	-12961
โดยช่าง	-12962
โดยเป็น	-12963
ในเดือน	-12964
ไม่อยู่	-12965
ไว้เป็น	-12966
COLORADO	-12967
Crystall	-12968
Filipino	-12969
Function	-12970
WhatsApp	-12971
กว่านั้น	-12972
การสมัคร	-12973
ข้อสงสัย	-12974
จิสติกส์	-12975
ชานเมือง	-12976
ช่องว่าง	-12977
ต่อสัญญา	-12978
ถ้ําหลวง	-12979
ทั้งนั้น	-12980
ทุกคนที่	-12981
นิดหน่อย	-12982
ประจักษ์	-12983
ปล่อยตัว	-12984
พวงมาลัย	-12985
ภาษีอากร	-12986
มารายงาน	-12987
มิดฟิลด์	-12988
วิทยาการ	-12989
ศาสนพิธี	-12990
สมัยก่อน	-12991
อย่างนี้	-12992
อาหารจาน	-12993
อุบาสิกา	-12994
เนตรนารี	-12995
เพชรเกษม	-12996
เวอร์ตัน	-12997
เสียงของ	-12998
แต่ละราย	-12999
<_>3-0<_>	-13000
การควบคุม	-13001
การศึกษาน	-13002
ของรางวัล	-13003
ของสินค้า	-13004
ขอบคุณค่ะ	-13005
ข้อยกเว้น	-13006
ครัวเรือน	-13007
ชั้นปีที่	-13008
ชื่อบัญชี	-13009
ชุดชั้นใน	-13010
ซื้อวัสดุ	-13011
ติดรถยนต์	-13012
บราวเซอร์	-13013
บัลแกเรีย	-13014
ป้ายโฆษณา	-13015
พระประธาน	-13016
มาร่วมทีม	-13017
ยางรถยนต์	-13018
รับจัดสวน	-13019
สามารถทํา	-13020
สามารถนํา	-13021
สูบบุหรี่	-13022
อย่างเช่น	-13023
อัสสัมชัญ	-13024
อาจจะเป็น	-13025
อาหารเช้า	-13026
เทศบาลนคร	-13027
เพิ่มเป็น	-13028
เวชศาสตร์	-13029
แบบฝึกหัด	-13030
แบบสอบถาม	-13031
แพร่ระบาด	-13032
โจ๊กเกอร์	-13033
โชว์ฟอร์ม	-13034
ในการดูแล	-13035
ในสัปดาห์	-13036
ในส่วนนี้	-13037
ให้กับผู้	-13038
ให้ดีขึ้น	-13039
ไปด้วยกัน	-13040
ไม่รู้ว่า	-13041
continuing	-13042
กฎแห่งกรรม	-13043
การอ้างอิง	-13044
จนกลายเป็น	-13045
ซึ่งทําให้	-13046
ซึ่งสามารถ	-13047
ทีมสุดท้าย	-13048
ภูมิศาสตร์	-13049
วันที่แล้ว	-13050
สินค้าหรือ	-13051
หลักประกัน	-13052
เขตปทุมวัน	-13053
เข้าใช้งาน	-13054
เต็มรูปแบบ	-13055
แม้กระทั่ง	-13056
และติดตั้ง	-13057
แสงอาทิตย์	-13058
ใบเสนอราคา	-13059
<_>10900<_>	-13060
<_>1<_>1<_>	-13061
Crystalline	-13062
ทาวน์เฮ้าส์	-13063
ที่ใช้ในการ	-13064
บทความธรรมะ	-13065
พร้อมกับการ	-13066
ภาคการศึกษา	-13067
ลดราคาพิเศษ	-13068
วิจิตรศิลป์	-13069
สัมพันธวงศ์	-13070
อุ่นเครื่อง	-13071
เข้าด้วยกัน	-13072
เครื่องชั่ง	-13073
เพื่อรองรับ	-13074
เพื่อให้ผู้	-13075
เอนกประสงค์	-13076
เอฟเวอร์ตัน	-13077
และทําการลบ	-13078
และเพื่อการ	-13079
ในการจัดการ	-13080
ให้คุณเลือก	-13081
ไม่สนับสนุน	-13082
▁เครื่องมือ	-13083
จังหวัดพะเยา	-13084
ที่โรงพยาบาล	-13085
มีความเสี่ยง	-13086
รวดเร็วทันใจ	-13087
สามารถใช้งาน	-13088
เกร็ดความรู้	-13089
เขียนโปรแกรม	-13090
▁มหาวิทยาลัย	-13091
กลุ่มส่งเสริม	-13092
ค่าใช้จ่ายใดๆ	-13093
ฉบับเพิ่มเติม	-13094
ดูซีรีย์ฝรั่ง	-13095
ถนนราชดําเนิน	-13096
วิภาวดีรังสิต	-13097
เครื่องซักผ้า	-13098
เพื่อเรียนรู้	-13099
ในพุทธประวัติ	-13100
ได้รับผลกระทบ	-13101
การแข่งขันกีฬา	-13102
คุณภาพการศึกษา	-13103
ผลิตภัณฑ์โอทอป	-13104
วิชาชีพชั้นสูง	-13105
เพลงประกอบละคร	-13106
โครงการจัดตั้ง	-13107
▁ก่อนที่ท่านจะ	-13108
ทราบและทําการลบ	-13109
ที่ใหญ่ที่สุดใน	-13110
รับวางระบบบัญชี	-13111
วิทยาลัยสงฆ์นคร	-13112
ศรีนครินทรวิโรฒ	-13113
ออกจากระบบต่อไป	-13114
เปลี่ยนแปลงบ่อย	-13115
เศรษฐกิจพอเพียง	-13116
บริการหลังการขาย	-13117
วิทยาลัยสงฆ์พุทธ	-13118
เขียนโดยสาธารณชน	-13119
เนื่องในโอกาสวัน	-13120
เพื่อความปลอดภัย	-13121
เศรษฐกิจและสังคม	-13122
27	-13123
68	-13124
BC	-13125
BL	-13126
JI	-13127
KM	-13128
Pi	-13129
So	-13130
UV	-13131
Zh	-13132
bs	-13133
nd	-13134
он	-13135
ار	-13136
งง	-13137
าา	-13138
ใฝ	-13139
▁T	-13140
AEC	-13141
BOY	-13142
EER	-13143
Equ	-13144
Get	-13145
Hun	-13146
Imp	-13147
Lic	-13148
Mad	-13149
Old	-13150
Rob	-13151
THB	-13152
Tal	-13153
UND	-13154
VPS	-13155
Vit	-13156
bar	-13157
cul	-13158
hib	-13159
hip	-13160
izz	-13161
lot	-13162
ney	-13163
obe	-13164
pdf	-13165
rat	-13166
rew	-13167
rop	-13168
see	-13169
seo	-13170
tit	-13171
toy	-13172
ula	-13173
une	-13174
vol	-13175
ขอม	-13176
คลา	-13177
คลี	-13178
งอก	-13179
ดีด	-13180
ดีน	-13181
ปวส	-13182
ฟิก	-13183
ยาบ	-13184
ยิม	-13185
ยุบ	-13186
รถย	-13187
ลุม	-13188
วิง	-13189
ษัท	-13190
สพม	-13191
สลบ	-13192
สสส	-13193
หยด	-13194
ออป	-13195
ิ้น	-13196
ีโอ	-13197
เบญ	-13198
เวด	-13199
แง่	-13200
โจ้	-13201
โสม	-13202
ไกร	-13203
ๆไป	-13204
Dong	-13205
Fair	-13206
Hits	-13207
PUBG	-13208
SHIP	-13209
Snap	-13210
Viet	-13211
Zoom	-13212
anda	-13213
anna	-13214
cons	-13215
ctor	-13216
ergy	-13217
erry	-13218
fast	-13219
ider	-13220
ient	-13221
ique	-13222
mini	-13223
ople	-13224
pres	-13225
resh	-13226
rica	-13227
side	-13228
skin	-13229
text	-13230
ving	-13231
wall	-13232
well	-13233
กรวด	-13234
ขนาน	-13235
ขยัน	-13236
คาแร	-13237
ชาดก	-13238
ฏฐมี	-13239
ดั่ง	-13240
ดูใน	-13241
ถนอม	-13242
ท่อย	-13243
บออก	-13244
มิจฉ	-13245
ลลี่	-13246
วัชร	-13247
วาไร	-13248
สปีด	-13249
สมุย	-13250
สรูป	-13251
หนาน	-13252
หั่น	-13253
อริย	-13254
อินท	-13255
เจือ	-13256
เต็ง	-13257
เลอะ	-13258
แจ่ม	-13259
แบล็	-13260
โรคม	-13261
ใต้น	-13262
ในวง	-13263
ใส่อ	-13264
ไกด์	-13265
ไวน์	-13266
ไฮดร	-13267
!<_><	-13268
"<_>(	-13269
."<_>	-13270
03<_>	-13271
59<_>	-13272
62<_>	-13273
<_>'<	-13274
<_>47	-13275
CREAM	-13276
Casio	-13277
Graph	-13278
Guard	-13279
Insur	-13280
Piece	-13281
RIGHT	-13282
Razer	-13283
Steel	-13284
Story	-13285
Study	-13286
Thank	-13287
Train	-13288
black	-13289
click	-13290
drome	-13291
every	-13292
first	-13293
parts	-13294
space	-13295
กว่าร	-13296
กัลโช	-13297
คว่ํา	-13298
งานศพ	-13299
จึงมี	-13300
ญากาศ	-13301
ดีเซล	-13302
ดีเอฟ	-13303
ดูที่	-13304
ถ้าจะ	-13305
ธรรม์	-13306
นี้ก็	-13307
ฝีปาก	-13308
พยากร	-13309
พิพาก	-13310
มะขาม	-13311
มังงะ	-13312
มีภาพ	-13313
ระคาย	-13314
วันอั	-13315
สิงโต	-13316
สีทอง	-13317
หน้าน	-13318
อดีตก	-13319
อวยพร	-13320
อีเวน	-13321
ารมณ์	-13322
าวนาน	-13323
เก่าๆ	-13324
เจตนา	-13325
เจ๋งๆ	-13326
เปียก	-13327
เมตตา	-13328
แตงโม	-13329
แมตช์	-13330
ใจกัน	-13331
ใหญ่ๆ	-13332
ให้มา	-13333
ไอคอน	-13334
,<_>25	-13335
-12<_>	-13336
.15<_>	-13337
.2<_>(	-13338
Nakhon	-13339
Person	-13340
change	-13341
custom	-13342
กักตัว	-13343
กันแบบ	-13344
การบวช	-13345
ก็ซื้อ	-13346
ขอความ	-13347
คอนโซล	-13348
คู่นี้	-13349
จนเป็น	-13350
จากเรา	-13351
ตัวเกม	-13352
ต่อกัน	-13353
ต่อรอง	-13354
ทะเลาะ	-13355
ทูเดย์	-13356
ท่อยาง	-13357
นมผึ้ง	-13358
นั้นก็	-13359
บนเวที	-13360
บบอร์ด	-13361
ปัญหาน	-13362
ฝันว่า	-13363
พี่ชาย	-13364
ฟุตซอล	-13365
รถยกรถ	-13366
รถเช่า	-13367
รากฐาน	-13368
วันพุธ	-13369
วันโกน	-13370
สรุปผล	-13371
สักพัก	-13372
สัตหีบ	-13373
สายลับ	-13374
สืบสาน	-13375
หลงรัก	-13376
หลอดไฟ	-13377
หลังจบ	-13378
หีบห่อ	-13379
าคาถูก	-13380
าสังคม	-13381
เก็บตก	-13382
เขายัง	-13383
เซเรีย	-13384
เซเว่น	-13385
เดลิเว	-13386
เปื้อน	-13387
เอาตัว	-13388
แต่ยัง	-13389
แทนการ	-13390
แม่สาย	-13391
และตัว	-13392
และที่	-13393
แสตมป์	-13394
แสนบาท	-13395
แห่งปี	-13396
โฆษณาส	-13397
โชคลาภ	-13398
โดยได้	-13399
โพสรูป	-13400
ในหน้า	-13401
ให้งาน	-13402
ให้ทีม	-13403
ได้ค่ะ	-13404
ไปเล่น	-13405
ไม่ถูก	-13406
ไม่ออก	-13407
ไว้ว่า	-13408
<_>2557	-13409
<_>—<_>	-13410
Factory	-13411
Library	-13412
PIONEER	-13413
Turkish	-13414
Vietnam	-13415
Western	-13416
problem	-13417
through	-13418
กฤษฎีกา	-13419
กันด้วย	-13420
การเดิน	-13421
ก็จะได้	-13422
จองตั๋ว	-13423
ดาวโหลด	-13424
ด้วยว่า	-13425
ตามสั่ง	-13426
ทรัพยาก	-13427
ทุเรียน	-13428
น้ําปลา	-13429
น้ําส้ม	-13430
บางแห่ง	-13431
ปักหมุด	-13432
พยากรณ์	-13433
ภิกษุณี	-13434
ริเริ่ม	-13435
ลวงแค้น	-13436
สั่งทํา	-13437
สาขาวิช	-13438
สายด่วน	-13439
หน้าของ	-13440
หน้างาน	-13441
หรือโทร	-13442
หัวหมาก	-13443
อยู่หัว	-13444
อาจจะมี	-13445
อุโมงค์	-13446
อ่อนโยน	-13447
ฮวงจุ้ย	-13448
เข้าฉาย	-13449
เป็นเกม	-13450
เพื่อหา	-13451
เรานั้น	-13452
แพ็คเกจ	-13453
และน้ํา	-13454
แอคชั่น	-13455
โครงงาน	-13456
<_>1,<_>	-13457
<_>43<_>	-13458
<_>89<_>	-13459
Archives	-13460
Thriller	-13461
กรุณาใช้	-13462
กลุ่มงาน	-13463
กลุ่มสวน	-13464
ของคนไทย	-13465
ของเหล่า	-13466
ความสนุก	-13467
งานพัสดุ	-13468
จากแหล่ง	-13469
จิตรกรรม	-13470
ฏฐมีบูชา	-13471
ดีเยี่ยม	-13472
ตั้งแต่อ	-13473
ตําบลบาง	-13474
ทักษะการ	-13475
ทั่วทั้ง	-13476
ที่ทุกคน	-13477
นิวยอร์ก	-13478
ประชารัฐ	-13479
มาจากการ	-13480
มิจฉาชีพ	-13481
มือหนึ่ง	-13482
ระยะสั้น	-13483
รายงานผล	-13484
ฤดูใบไม้	-13485
หลายแห่ง	-13486
หอประชุม	-13487
อัคคีภัย	-13488
เข้ารหัส	-13489
เข้าอบรม	-13490
เจ้าถิ่น	-13491
เดนมาร์ก	-13492
เทศมนตรี	-13493
เพราะการ	-13494
เพื่อนํา	-13495
เรื้อรัง	-13496
โครงการฯ	-13497
โรนัลโด้	-13498
ในการวัด	-13499
ใบรับรอง	-13500
กลุ่มศาสน	-13501
การบรรยาย	-13502
การแสดงผล	-13503
ของรัฐบาล	-13504
ของศิลปิน	-13505
ขององค์กร	-13506
ของเราอาจ	-13507
ของเราได้	-13508
ขอเชิญชวน	-13509
ข้อมูลนี้	-13510
งบการเงิน	-13511
จะเปลี่ยน	-13512
ชําระหนี้	-13513
ถวายพระพร	-13514
ที่เราได้	-13515
ทุกรายการ	-13516
นิทานชาดก	-13517
บทสวดมนต์	-13518
บริการของ	-13519
บีเอ็มดับ	-13520
ปฏิกิริยา	-13521
ปรัชญาและ	-13522
พุทธศาสนา	-13523
พูดคุยกับ	-13524
ภัยคุกคาม	-13525
มากเกินไป	-13526
มาโดยตลอด	-13527
มีพื้นที่	-13528
ยืนยันว่า	-13529
รวมคําสอน	-13530
รวมตัวกัน	-13531
รักษาสภาพ	-13532
ศาสตร์และ	-13533
ห้องอาหาร	-13534
อากาศร้อน	-13535
ฮาร์ดแวร์	-13536
เกียรติยศ	-13537
เซ็นสัญญา	-13538
เภสัชกรรม	-13539
เวลาในการ	-13540
เหลือเกิน	-13541
และทีมงาน	-13542
และเพื่อน	-13543
ในด้านการ	-13544
ในหลวงกับ	-13545
ให้ทําการ	-13546
ได้เลยว่า	-13547
ไปที่หน้า	-13548
▁หน้าหลัก	-13549
▁หมวดหมู่	-13550
<_>...<_><	-13551
<_>2557<_>	-13552
Scientific	-13553
ของญี่ปุ่น	-13554
ความท้าทาย	-13555
จัดทําขึ้น	-13556
ชื่อสินค้า	-13557
ซอฟแวร์ของ	-13558
ด้วยทีมงาน	-13559
ตั้งคําถาม	-13560
นีลเส็นอาจ	-13561
ผลการเรียน	-13562
ฝ่ายบริการ	-13563
ยังไม่ทราบ	-13564
วันมาฆบูชา	-13565
สวนสาธารณะ	-13566
สิ่งสําคัญ	-13567
สุดสัปดาห์	-13568
หรือประมาณ	-13569
อาร์เจนติน	-13570
เคาน์เตอร์	-13571
เนื้อสัตว์	-13572
เพาะเลี้ยง	-13573
เวลาทําการ	-13574
และฟังธรรม	-13575
โลจิสติกส์	-13576
ได้ตั้งแต่	-13577
ไม่ควรพลาด	-13578
▁บทความนี้	-13579
DateAuthors	-13580
การรักษาศีล	-13581
คลิกเพื่อดู	-13582
ทางวัฒนธรรม	-13583
พร้อมส่วนลด	-13584
พร้อมใช้งาน	-13585
มาตรฐานสากล	-13586
รถยกรถสไลด์	-13587
รายได้เสริม	-13588
ลานธรรมจักร	-13589
ล้านดอลลาร์	-13590
วันออกพรรษา	-13591
ศาสนสถานและ	-13592
อุปกรณ์ระบบ	-13593
เกิดขึ้นได้	-13594
เจ้าอยู่หัว	-13595
เทพีลวงแค้น	-13596
เนื้อเรื่อง	-13597
เปลี่ยนชื่อ	-13598
เพราะฉะนั้น	-13599
เรตติ้งทีวี	-13600
แจ้งให้ทราบ	-13601
และการศึกษา	-13602
โรงเรียนสอน	-13603
<_>50,000<_>	-13604
ทั้งในประเทศ	-13605
ธนาคารออมสิน	-13606
ประกอบกิจการ	-13607
ประกาศของคุณ	-13608
ปัจจัยเสี่ยง	-13609
มาร์เก็ตเพลส	-13610
วิจัยการตลาด	-13611
และอีกมากมาย	-13612
กลุ่มสาระธรรม	-13613
การจัดกิจกรรม	-13614
ของขวัญปีใหม่	-13615
ของนีลเส็นที่	-13616
ซึ่งทําให้คุณ	-13617
ด้านเทคโนโลยี	-13618
ที่ดีที่สุดใน	-13619
ที่เกิดจากการ	-13620
รถมอเตอร์ไซค์	-13621
วันอัฏฐมีบูชา	-13622
สถานีโทรทัศน์	-13623
หนังสือรับรอง	-13624
เชิดชูเกียรติ	-13625
เพื่อสนับสนุน	-13626
ให้ดียิ่งขึ้น	-13627
TitlesSubjects	-13628
กระทรวงการคลัง	-13629
กลุ่มศาสนบุคคล	-13630
การศึกษาทางไกล	-13631
จังหวัดชัยภูมิ	-13632
ทรัพยากรมนุษย์	-13633
ที่เปลี่ยนแปลง	-13634
บริหารงานบุคคล	-13635
รายงานประจําปี	-13636
วอลเลย์บอลหญิง	-13637
วัดและศาสนสถาน	-13638
ให้การสนับสนุน	-13639
ซอฟแวร์ในการวัด	-13640
ภาษีมูลค่าเพิ่ม	-13641
มหาวิทยาลัยสั่ง	-13642
ระดับเขตพื้นที่	-13643
หวยหนังสือพิมพ์	-13644
อัตราแลกเปลี่ยน	-13645
อาจารย์ตัวอย่าง	-13646
กลุ่มศาสนสถานและ	-13647
ของการวัดดิจิตอล	-13648
ปรับปรุงและพัฒนา	-13649
พิธีกรรมทางศาสนา	-13650
เพื่อให้นักศึกษา	-13651
ให้บริการข่าวสาร	-13652
,8	-13653
.-	-13654
0)	-13655
74	-13656
CY	-13657
DU	-13658
ET	-13659
FB	-13660
MT	-13661
TB	-13662
XX	-13663
ZE	-13664
hd	-13665
kg	-13666
uj	-13667
กพ	-13668
ขม	-13669
ช้	-13670
บ๊	-13671
ปม	-13672
วู	-13673
ศึ	-13674
ิส	-13675
▁R	-13676
012	-13677
112	-13678
Asc	-13679
Ash	-13680
BNK	-13681
Bah	-13682
Cle	-13683
ERS	-13684
Her	-13685
ICT	-13686
Ice	-13687
Kim	-13688
Laz	-13689
POS	-13690
Paj	-13691
RAN	-13692
SQL	-13693
Sat	-13694
TAC	-13695
Who	-13696
Xbo	-13697
agn	-13698
ars	-13699
ipp	-13700
ism	-13701
lab	-13702
lin	-13703
oke	-13704
ots	-13705
pop	-13706
put	-13707
via	-13708
กลา	-13709
คาง	-13710
ชีส	-13711
ญาน	-13712
ตะก	-13713
ติม	-13714
ต้อ	-13715
ถี่	-13716
ทวง	-13717
ทิป	-13718
ทูป	-13719
นัน	-13720
นาฏ	-13721
บาป	-13722
บิก	-13723
ผือ	-13724
ฝาง	-13725
พิถ	-13726
ฟิว	-13727
มิส	-13728
รือ	-13729
ลอบ	-13730
สกู	-13731
สุม	-13732
อมร	-13733
อสม	-13734
ี้น	-13735
เดร	-13736
แคช	-13737
แคบ	-13738
แปด	-13739
แมช	-13740
โกะ	-13741
โป้	-13742
โพน	-13743
๊อค	-13744
▁ใน	-13745
....	-13746
Brid	-13747
Brit	-13748
Cert	-13749
Fund	-13750
Jobs	-13751
Like	-13752
NIKO	-13753
Sand	-13754
Skin	-13755
amic	-13756
anya	-13757
dist	-13758
elly	-13759
igma	-13760
into	-13761
kara	-13762
lete	-13763
open	-13764
roll	-13765
ront	-13766
ting	-13767
vide	-13768
zing	-13769
กระต	-13770
กรีก	-13771
กลูก	-13772
กวาง	-13773
ชนนี	-13774
ชะลอ	-13775
ดื้อ	-13776
ปราย	-13777
ปลาก	-13778
ฝ้าย	-13779
พลัน	-13780
พื่อ	-13781
มารี	-13782
รมหา	-13783
รุณา	-13784
สมรส	-13785
สวิส	-13786
สเปก	-13787
หยาบ	-13788
อรุณ	-13789
อลํา	-13790
อาญา	-13791
อีซู	-13792
อโศก	-13793
ารู้	-13794
ิลล์	-13795
เก๊า	-13796
เต็น	-13797
เสนา	-13798
แท็ก	-13799
แน่ๆ	-13800
▁All	-13801
"<_>→	-13802
-7<_>	-13803
01<_>	-13804
08<_>	-13805
14<_>	-13806
3)<_>	-13807
64<_>	-13808
71<_>	-13809
ACTIV	-13810
Clean	-13811
Creme	-13812
Every	-13813
James	-13814
Moist	-13815
Opens	-13816
Stick	-13817
Touch	-13818
Voice	-13819
blems	-13820
cheer	-13821
eline	-13822
hours	-13823
ility	-13824
imate	-13825
joker	-13826
oring	-13827
place	-13828
visit	-13829
กร่อน	-13830
ขอมอบ	-13831
คลั่ง	-13832
ดีแทค	-13833
ดูว่า	-13834
ตอนจบ	-13835
นะจ๊ะ	-13836
นานาส	-13837
ผู้ดี	-13838
พากัน	-13839
พาร์ค	-13840
พาเลซ	-13841
ยูทูป	-13842
หมิ่น	-13843
ออลล์	-13844
ากลับ	-13845
เคยมี	-13846
เชอร์	-13847
เท็กซ	-13848
แวดวง	-13849
ในทีม	-13850
ในภาค	-13851
่าสุด	-13852
▁กลับ	-13853
-20<_>	-13854
-30<_>	-13855
..<_>(	-13856
80<_>8	-13857
99<_>(	-13858
<_>053	-13859
Awards	-13860
Demand	-13861
Format	-13862
Hunter	-13863
NUMBER	-13864
Pajero	-13865
Potato	-13866
Python	-13867
Screen	-13868
Square	-13869
Street	-13870
accept	-13871
center	-13872
health	-13873
irtual	-13874
onsive	-13875
vatski	-13876
การกิน	-13877
การส่ง	-13878
ก็จะมี	-13879
ของฝาก	-13880
ขายเอง	-13881
คริสเต	-13882
คุณได้	-13883
จําพวก	-13884
ซอมบี้	-13885
ซูซูกิ	-13886
ดอกบัว	-13887
ตกชั้น	-13888
ตอนแรก	-13889
ตามแนว	-13890
ถ้าไม่	-13891
ทุกวัย	-13892
น่ารู้	-13893
บางพลี	-13894
บาสเกต	-13895
บุคลิก	-13896
บ่งบอก	-13897
ปราสาท	-13898
ปัญหาร	-13899
ภาพและ	-13900
มอบให้	-13901
มีฝนตก	-13902
มูฟวี่	-13903
ยกย่อง	-13904
รอบสอง	-13905
รอบโลก	-13906
ระบบไฟ	-13907
ลูกบอล	-13908
สองสาม	-13909
สายงาน	-13910
อินทรี	-13911
อีกว่า	-13912
ารักษา	-13913
เร้าใจ	-13914
เลี่ยน	-13915
เส้นใย	-13916
เหงื่อ	-13917
แก่ผู้	-13918
แต่หาก	-13919
แนะแนว	-13920
แม่ค้า	-13921
และฉัน	-13922
ในหมู่	-13923
ให้นํา	-13924
ไม่ยอม	-13925
ไม่ไหว	-13926
ไล่ล่า	-13927
,900<_>	-13928
-19)<_>	-13929
<_>”<_>	-13930
Fashion	-13931
Fitting	-13932
General	-13933
Kingdom	-13934
Printer	-13935
Uncateg	-13936
Version	-13937
ailable	-13938
details	-13939
youtube	-13940
กันก่อน	-13941
ก็อาจจะ	-13942
ของขลัง	-13943
ขึ้นรูป	-13944
ข้อเข่า	-13945
ข้างต้น	-13946
คริสตัล	-13947
ค่าเช่า	-13948
งานผลิต	-13949
จะเริ่ม	-13950
ชั้นที่	-13951
ชุดใหญ่	-13952
ต่อความ	-13953
ถอดสลัก	-13954
ถูกกว่า	-13955
ทัศนคติ	-13956
ทั้งมวล	-13957
ทั้งยัง	-13958
ที่ง่าย	-13959
ทุกสิ่ง	-13960
ทําให้อ	-13961
ปฏิวัติ	-13962
ปากช่อง	-13963
พัฒนามา	-13964
ภูเขาไฟ	-13965
มาอย่าง	-13966
ย้ายทีม	-13967
รับทราบ	-13968
รุ่นแรก	-13969
ร่มรื่น	-13970
ร้อนแรง	-13971
วาไรตี้	-13972
สองภาษา	-13973
ส่วนที่	-13974
หนองจอก	-13975
หนองแขม	-13976
หนังไม่	-13977
หลังสุด	-13978
หัวเราะ	-13979
ห่างไกล	-13980
อนุญาติ	-13981
อย่างใด	-13982
อัปโหลด	-13983
อาจสนใจ	-13984
เงินทุน	-13985
เช่นนี้	-13986
เท็กซัส	-13987
เป็นสาร	-13988
เรียกดู	-13989
แช่แข็ง	-13990
และกีฬา	-13991
โดยจะมี	-13992
โปรไฟล์	-13993
ใหม่จาก	-13994
ไซเบอร์	-13995
ได้เสีย	-13996
ไหว้ครู	-13997
<_>62<_>	-13998
<_>65<_>	-13999
Category	-14000
Commerce	-14001
District	-14002
disabled	-14003
français	-14004
function	-14005
กลุ่มผู้	-14006
ข้อมูลใน	-14007
งานอื่นๆ	-14008
จะต้องมี	-14009
ชั่วโคตร	-14010
ตรวจเช็ค	-14011
ทนายความ	-14012
นานาสาระ	-14013
ประพันธ์	-14014
ปรากฏว่า	-14015
ฟอกอากาศ	-14016
ฟินแลนด์	-14017
รหัสวิชา	-14018
รับบทโดย	-14019
ล้านยูโร	-14020
วัยเรียน	-14021
สามารถดู	-14022
หล่อลื่น	-14023
อากาศยาน	-14024
าร่วมงาน	-14025
เก่ากว่า	-14026
เงินด่วน	-14027
เชื้อสาย	-14028
เชื้อโรค	-14029
เช่นเดิม	-14030
เดือนนี้	-14031
เนื้อผ้า	-14032
เร่งด่วน	-14033
เลือกรับ	-14034
แขวงคลอง	-14035
โดยเพิ่ม	-14036
โน๊ตบุ๊ค	-14037
โปรดแจ้ง	-14038
โมเดิร์น	-14039
ในลักษณะ	-14040
ได้รับชม	-14041
ไนจีเรีย	-14042
▁หลังจาก	-14043
"<_>→<_>"	-14044
)<_>=><_>	-14045
1<_>82<_>	-14046
4<_>75<_>	-14047
<_>360<_>	-14048
<_>4.0<_>	-14049
<_>600<_>	-14050
<_>700<_>	-14051
Biography	-14052
technical	-14053
การรับรู้	-14054
ข่าวเกมส์	-14055
คํานึงถึง	-14056
จําแนกออก	-14057
ซอฟท์แวร์	-14058
ตามนโยบาย	-14059
ทางกฎหมาย	-14060
ที่คุณรัก	-14061
ที่ดีกว่า	-14062
ที่รองรับ	-14063
ที่หลายคน	-14064
ที่ไม่ควร	-14065
บาสเกตบอล	-14066
บ้านเมือง	-14067
ระบบไฟฟ้า	-14068
ลิงก์ถาวร	-14069
สภาผู้แทน	-14070
สามารถส่ง	-14071
สาวน่ารัก	-14072
สินค้าฟรี	-14073
สุขาภิบาล	-14074
สูงสุดถึง	-14075
ออกจากทีม	-14076
เท่าเทียม	-14077
เพื่อซื้อ	-14078
เรียลไทม์	-14079
เรือประมง	-14080
และบทความ	-14081
แอนดรอยด์	-14082
▁จําหน่าย	-14083
35<_>40<_>	-14084
76<_>77<_>	-14085
78<_>79<_>	-14086
83<_>84<_>	-14087
85<_>86<_>	-14088
<_>1000<_>	-14089
<_>15<_>20	-14090
<_>2008<_>	-14091
Javascript	-14092
การแต่งตัว	-14093
ของร่างกาย	-14094
ข่าววันนี้	-14095
ความน่ารัก	-14096
คาแรคเตอร์	-14097
ที่ปรากฏใน	-14098
นิติศาสตร์	-14099
บาร์เซโลนา	-14100
ผลการค้นหา	-14101
พึงประสงค์	-14102
พ้นสภาพไม่	-14103
รูปการ์ตูน	-14104
สุดท้ายของ	-14105
สํานักปลัด	-14106
อยู่ภายใต้	-14107
เดอะมูฟวี่	-14108
เนื้อเยื่อ	-14109
เปิดบริการ	-14110
แจ้งเบาะแส	-14111
และพนักงาน	-14112
และรวดเร็ว	-14113
ใหม่ทุกวัน	-14114
ได้มาตรฐาน	-14115
ได้มีโอกาส	-14116
ไม่ต้องการ	-14117
▁เนื่องจาก	-14118
<_>-<_>1<_>	-14119
กันความร้อน	-14120
ความถูกต้อง	-14121
ถอดสลักข่าว	-14122
ปิดความเห็น	-14123
ภาพบรรยากาศ	-14124
มารายงานตัว	-14125
วิทยาลัยการ	-14126
สภากาชาดไทย	-14127
สอบสัมภาษณ์	-14128
อยู่ระหว่าง	-14129
เครื่องปรุง	-14130
เชิงพาณิชย์	-14131
เพียงไม่กี่	-14132
เพื่อการค้า	-14133
และสนับสนุน	-14134
โครงการหลวง	-14135
ในห้องเรียน	-14136
ได้ตลอดเวลา	-14137
<_>2-2550<_>	-14138
Professional	-14139
การเป็นนิสิต	-14140
การเลือกตั้ง	-14141
ก่อนตัดสินใจ	-14142
ดําเนินชีวิต	-14143
ตัดจําแนกออก	-14144
ถนนแจ้งวัฒนะ	-14145
ที่มีความรู้	-14146
ผ่านเว็บไซต์	-14147
มีความสําคัญ	-14148
อย่างเต็มที่	-14149
เข้าศึกษาต่อ	-14150
เจ้าอาวาสวัด	-14151
เที่ยวบินจาก	-14152
เป็นอย่างสูง	-14153
เพื่อช่วยให้	-14154
เว็บไซต์ข่าว	-14155
และการบริการ	-14156
ได้รับสินค้า	-14157
<_>25<_>30<_>	-14158
กันเลยทีเดียว	-14159
การเคลื่อนไหว	-14160
ความรับผิดชอบ	-14161
ความเชี่ยวชาญ	-14162
ชั้นวางสินค้า	-14163
บริษัทรถทัวร์	-14164
ประชุมวิชาการ	-14165
ลงชื่อเข้าใช้	-14166
สินค้าในสต็อค	-14167
เป็นบริการแบบ	-14168
เป็นสัญลักษณ์	-14169
แขวงทุ่งพญาไท	-14170
และจะมีการนํา	-14171
โรงเรียนสาธิต	-14172
<_>©<_>2017<_>	-14173
<_>©<_>2020<_>	-14174
WeLoveShopping	-14175
ก่อสร้างทางคู่	-14176
ของเจ้าหน้าที่	-14177
คอร์สเตรียมสอบ	-14178
ชิงแชมป์เอเชีย	-14179
ที่ท่านอาจสนใจ	-14180
นํามาวิเคราะห์	-14181
ผลิตภัณฑ์เสริม	-14182
อย่างเดียวแล้ว	-14183
เครื่องแต่งกาย	-14184
35<_>40<_>45<_>	-14185
80<_>81<_>82<_>	-14186
ขององค์กรปกครอง	-14187
คลิกที่นี่เพื่อ	-14188
ความสามารถในการ	-14189
จะหยุดให้บริการ	-14190
ทัวร์ต่างประเทศ	-14191
บทความเกี่ยวกับ	-14192
พระบรมราชินีนาถ	-14193
รับตรวจสอบบัญชี	-14194
สินค้าพรีเมี่ยม	-14195
ส่วนบุคคลของเรา	-14196
ส่วนหนึ่งส่วนใด	-14197
ออกแบบผลิตภัณฑ์	-14198
เพิ่มพูนความรู้	-14199
เพื่อป้องกันการ	-14200
ไม่ว่าจะเป็นการ	-14201
การประชุมวิชาการ	-14202
จังหวัดนครสวรรค์	-14203
จังหวัดสิงห์บุรี	-14204
ผ่านอินเทอร์เน็ต	-14205
เว็บไซต์นี้มีการ	-14206
'<	-14207
)(	-14208
0%	-14209
4,	-14210
69	-14211
92	-14212
98	-14213
="	-14214
Af	-14215
DE	-14216
FO	-14217
HU	-14218
IF	-14219
KR	-14220
LS	-14221
NO	-14222
UK	-14223
eu	-14224
na	-14225
ts	-14226
xo	-14227
ญ์	-14228
AMD	-14229
AME	-14230
Ast	-14231
Bat	-14232
CAM	-14233
Cri	-14234
Cym	-14235
Def	-14236
END	-14237
Flo	-14238
ITY	-14239
Ink	-14240
Kur	-14241
LAY	-14242
PAJ	-14243
PET	-14244
PRE	-14245
VIE	-14246
Wat	-14247
Wol	-14248
ads	-14249
bas	-14250
cle	-14251
dan	-14252
ety	-14253
ira	-14254
ird	-14255
oda	-14256
tar	-14257
tor	-14258
ก้า	-14259
คละ	-14260
คอง	-14261
คุด	-14262
ฉับ	-14263
ฉาว	-14264
ซอก	-14265
ซัล	-14266
ดส์	-14267
ด่า	-14268
ททท	-14269
ธนู	-14270
นาร	-14271
บมจ	-14272
ปอม	-14273
พาด	-14274
ฟอน	-14275
ฟาด	-14276
มอญ	-14277
มาบ	-14278
มิช	-14279
รอก	-14280
ลวก	-14281
ลาส	-14282
ลิส	-14283
ลีน	-14284
หาบ	-14285
อวด	-14286
อสู	-14287
ี้อ	-14288
เจ๊	-14289
เดา	-14290
เต้	-14291
เทม	-14292
เนย	-14293
เรซ	-14294
โผล	-14295
โอล	-14296
ใด้	-14297
ใฝ่	-14298
ไวย	-14299
-144	-14300
-899	-14301
ANNA	-14302
Aust	-14303
Buff	-14304
Cast	-14305
Desc	-14306
FUJI	-14307
Gree	-14308
Insp	-14309
Mall	-14310
Over	-14311
Path	-14312
Plat	-14313
SENG	-14314
Shap	-14315
Sign	-14316
Size	-14317
Spec	-14318
agen	-14319
anth	-14320
area	-14321
avor	-14322
blue	-14323
body	-14324
cafe	-14325
cart	-14326
cosi	-14327
ench	-14328
film	-14329
hard	-14330
lift	-14331
maxi	-14332
onic	-14333
pass	-14334
such	-14335
tion	-14336
uket	-14337
กําน	-14338
คลาด	-14339
คลึง	-14340
จิ้น	-14341
ดูสิ	-14342
ด้อย	-14343
ต่อม	-14344
ทยอย	-14345
ธารณ	-14346
บาลี	-14347
บิดา	-14348
ปลาน	-14349
ผนึก	-14350
พิถี	-14351
มะลิ	-14352
ร่อน	-14353
วิตร	-14354
หมัก	-14355
หยวน	-14356
หามา	-14357
านาน	-14358
าร์ต	-14359
เอซี	-14360
โกรธ	-14361
โคจร	-14362
โลกร	-14363
โหรา	-14364
ไบค์	-14365
ไปมา	-14366
ไอซี	-14367
ํารถ	-14368
▁ใคร	-14369
):<_>	-14370
04<_>	-14371
1<_><	-14372
4,<_>	-14373
41<_>	-14374
46<_>	-14375
65<_>	-14376
<_>46	-14377
<_>66	-14378
><_>0	-14379
Alike	-14380
Asian	-14381
Basic	-14382
Blade	-14383
Canon	-14384
Crime	-14385
EIGHT	-14386
ENTER	-14387
Earth	-14388
Event	-14389
Found	-14390
Gmail	-14391
Image	-14392
Items	-14393
Sense	-14394
Sound	-14395
Valve	-14396
Wolfo	-14397
YFIVE	-14398
ellow	-14399
field	-14400
instr	-14401
photo	-14402
poses	-14403
thern	-14404
these	-14405
vance	-14406
ขอโทษ	-14407
ข้อหา	-14408
คาสเซ	-14409
จึงขอ	-14410
ดวงตา	-14411
ดีกรี	-14412
ทายาท	-14413
ที่ใด	-14414
ธิคุณ	-14415
บูรณะ	-14416
ผักชี	-14417
พยาธิ	-14418
พาเลท	-14419
พิถัน	-14420
มามาก	-14421
มิตซู	-14422
วบรวม	-14423
สติ้ง	-14424
หนทาง	-14425
อาราม	-14426
ฮอลล์	-14427
างวัล	-14428
ิดีโอ	-14429
ี่ยวน	-14430
เคือง	-14431
เชียว	-14432
เตรีย	-14433
เต็มๆ	-14434
เท่าน	-14435
แมนยู	-14436
และรถ	-14437
โดนัท	-14438
โหม่ง	-14439
ใกล้ๆ	-14440
ไฟแนน	-14441
▁*<_>	-14442
,<_>08	-14443
.60<_>	-14444
123<_>	-14445
<_>500	-14446
Bahasa	-14447
Econom	-14448
Energy	-14449
FireFo	-14450
German	-14451
Lazada	-14452
NIKOLE	-14453
PAJERO	-14454
Racing	-14455
Sloven	-14456
humvit	-14457
imming	-14458
itemap	-14459
itions	-14460
recent	-14461
shared	-14462
กดไลค์	-14463
ขนมจีน	-14464
ขาตั้ง	-14465
งานผ้า	-14466
ชํารุด	-14467
ตะกร้อ	-14468
ตัวยัง	-14469
ตากสิน	-14470
ตามรอย	-14471
ต้องรอ	-14472
ทักทาย	-14473
ทางจิต	-14474
ที่ควร	-14475
ที่ฉัน	-14476
ทําผิด	-14477
ธุรการ	-14478
นั้นจะ	-14479
นี้คือ	-14480
นี้ว่า	-14481
น่าใช้	-14482
บอลโลก	-14483
ประลอง	-14484
ผ่านมา	-14485
ฝากรูป	-14486
ฝ่าฝืน	-14487
พระแท้	-14488
พ้นจาก	-14489
ฟักทอง	-14490
มหาศาล	-14491
มันคือ	-14492
รัฐสภา	-14493
รายแรก	-14494
ลูกไม้	-14495
วัสดุก	-14496
วางขาย	-14497
สถาปนา	-14498
สุดมัน	-14499
หนุ่มๆ	-14500
อนุมูล	-14501
เต็นท์	-14502
เทิร์น	-14503
เธอจึง	-14504
เพี้ยน	-14505
เยิร์น	-14506
เราจัด	-14507
เลี้ยว	-14508
และติด	-14509
และพวก	-14510
โปรเจค	-14511
ในร้าน	-14512
ในหลาย	-14513
<_>2004	-14514
<_>2565	-14515
Address	-14516
GINSENG	-14517
Present	-14518
ThaiLIS	-14519
avorite	-14520
project	-14521
กราฟฟิก	-14522
กล่าวหา	-14523
กองคลัง	-14524
การกุศล	-14525
ก็ยังมี	-14526
ของเสีย	-14527
ขายปลีก	-14528
ค้นหาใน	-14529
ค้าปลีก	-14530
จอร์แดน	-14531
ตลอดกาล	-14532
ตัวกรอง	-14533
ตัวเล่น	-14534
ต่อหน้า	-14535
ต่างดาว	-14536
ต่างหาก	-14537
ถ่ายทํา	-14538
ที่ซื้อ	-14539
นักข่าว	-14540
นี้นั้น	-14541
นําหน้า	-14542
พระโพธิ	-14543
พิพากษา	-14544
พ่ายแพ้	-14545
ฟ้องคดี	-14546
รูปปั้น	-14547
ร้อยรัก	-14548
ลีกเอิง	-14549
สถาปนิก	-14550
สักครู่	-14551
ห่างกัน	-14552
อะไรคือ	-14553
เจ้าคุณ	-14554
เบาหวาน	-14555
เสมอกัน	-14556
เสาเข็ม	-14557
เหตุให้	-14558
เห็นชอบ	-14559
แบบบ้าน	-14560
แบบเต็ม	-14561
แพ็กเกจ	-14562
และอื่น	-14563
แล้วค่ะ	-14564
ในยุโรป	-14565
ในเลือด	-14566
ใหญ่มาก	-14567
ใหม่นี้	-14568
ให้ด้วย	-14569
ให้ทราบ	-14570
ให้น้ํา	-14571
ไข่เค็ม	-14572
ได้ตลอด	-14573
่วงหน้า	-14574
▁ขออภัย	-14575
▁สถาบัน	-14576
▁โรงแรม	-14577
)<_>–<_>	-14578
-2020<_>	-14579
<_>52<_>	-14580
<_>53<_>	-14581
<_>54<_>	-14582
Delivery	-14583
Infinite	-14584
Infinity	-14585
Workshop	-14586
ashboard	-14587
hrvatski	-14588
purposes	-14589
software	-14590
ustrator	-14591
กรมธรรม์	-14592
กรมประมง	-14593
ของวงการ	-14594
คนสําคัญ	-14595
ค้นหาตาม	-14596
งานศิลปะ	-14597
จนเกินไป	-14598
ชั้นล่าง	-14599
ซิงเกิ้ล	-14600
ต้องเสีย	-14601
ตําบลแม่	-14602
ที่จะนํา	-14603
ทําได้ดี	-14604
น้ําเสีย	-14605
ปฐมนิเทศ	-14606
ปีศาจแดง	-14607
มุ่งหมาย	-14608
รีไซเคิล	-14609
ศิลปกรรม	-14610
สวนสัตว์	-14611
สันติภาพ	-14612
สูญญากาศ	-14613
ส่วนร่วม	-14614
หนังกีฬา	-14615
ออกเสียง	-14616
เกินกว่า	-14617
เขตพญาไท	-14618
เงียบสงบ	-14619
เซอร์วิส	-14620
เติมเงิน	-14621
เนย์มาร์	-14622
เมื่อเรา	-14623
เวสต์แฮม	-14624
เสาไฟฟ้า	-14625
แพร่หลาย	-14626
และผลไม้	-14627
ใหม่กว่า	-14628
ให้ทุกคน	-14629
▁ข่าวสาร	-14630
<_>1-3<_>	-14631
><_>-<_><	-14632
promotion	-14633
ของโรงแรม	-14634
ขายต้นไม้	-14635
งานออกแบบ	-14636
จากลูกค้า	-14637
ตราสินค้า	-14638
ทดลองเล่น	-14639
ที่ยังไม่	-14640
ที่สุดของ	-14641
ที่เกี่ยว	-14642
ท่องเที่ย	-14643
ทําธุรกิจ	-14644
นักฟุตบอล	-14645
บนพื้นที่	-14646
บริการรับ	-14647
ผู้เข้าชม	-14648
พระราชวัง	-14649
พลิเคชั่น	-14650
ยอมรับว่า	-14651
รับรองว่า	-14652
รุณาธิคุณ	-14653
ลุ้นแชมป์	-14654
วันทําการ	-14655
วิชาเลือก	-14656
สารานุกรม	-14657
สิ่งสกปรก	-14658
หวังว่าจะ	-14659
อิงค์เจ็ท	-14660
เขตพระนคร	-14661
เคมีภัณฑ์	-14662
เตรียมการ	-14663
เทรนเนอร์	-14664
เป็นกลุ่ม	-14665
เผชิญหน้า	-14666
เอาตัวรอด	-14667
แรงดันสูง	-14668
แหล่งน้ํา	-14669
โดยบริษัท	-14670
โดยสามารถ	-14671
ให้คนอื่น	-14672
ไม่มีอะไร	-14673
ไม่เป็นไร	-14674
87<_>88<_>	-14675
89<_>90<_>	-14676
91<_>92<_>	-14677
93<_>94<_>	-14678
95<_>96<_>	-14679
97<_>98<_>	-14680
<_>2556<_>	-14681
ClassStart	-14682
EIGHTYFIVE	-14683
instrument	-14684
กันระหว่าง	-14685
ก่อให้เกิด	-14686
ข้อมูลเก่า	-14687
ข้างบนหรือ	-14688
ข้าวเหนียว	-14689
ช่างเชื่อม	-14690
ตกแต่งด้วย	-14691
ตรวจเยี่ยม	-14692
ตามระเบียบ	-14693
ถ่ายเอกสาร	-14694
ถ้าต้องการ	-14695
ทั้งสองทีม	-14696
ทางวิชาชีพ	-14697
ที่ยั่งยืน	-14698
ธรรมาภิบาล	-14699
นําแสดงโดย	-14700
บรรยากาศดี	-14701
พลาดไม่ได้	-14702
ลดความอ้วน	-14703
ลายนิ้วมือ	-14704
วังทองหลาง	-14705
ศูนย์วิจัย	-14706
สตัดเกลียว	-14707
สี่เหลี่ยม	-14708
ส่วนเรื่อง	-14709
สําหรับนัก	-14710
หลักฐานการ	-14711
อยู่ในช่วง	-14712
เป็นกันเอง	-14713
เพื่อชีวิต	-14714
แต่สําหรับ	-14715
และการ์ตูน	-14716
และปลอดภัย	-14717
ใช้อุปกรณ์	-14718
ได้ที่ลิ้ง	-14719
ได้มากขึ้น	-14720
ได้รับแจ้ง	-14721
PlayStation	-14722
กรมส่งเสริม	-14723
การงานอาชีพ	-14724
การสนับสนุน	-14725
กําลังศึกษา	-14726
จังหวัดยะลา	-14727
ชิงแชมป์โลก	-14728
ซีรีย์ฝรั่ง	-14729
ด้วยเช่นกัน	-14730
ตลาดซื้อขาย	-14731
ตามอัธยาศัย	-14732
ทางการเกษตร	-14733
ที่มีลักษณะ	-14734
บาทเท่านั้น	-14735
ผ่านช่องทาง	-14736
ฝีมือแรงงาน	-14737
ลืมรหัสผ่าน	-14738
สถาบันวิจัย	-14739
สินค้าที่ดี	-14740
สํานักพิมพ์	-14741
หอการค้าไทย	-14742
อนุมูลอิสระ	-14743
อัพโหลดไฟล์	-14744
อีเมลของคุณ	-14745
เกาหลีเหนือ	-14746
เจ้าของร้าน	-14747
เซิร์ฟเวอร์	-14748
เป็นผู้หญิง	-14749
และการพัฒนา	-14750
โครงการอบรม	-14751
ในฤดูกาลนี้	-14752
<_>73<_>=<_>	-14753
<_>74<_>=<_>	-14754
การถ่ายทอดสด	-14755
งานรับปริญญา	-14756
จังหวัดระยอง	-14757
ซัพพลายเออร์	-14758
ซีรีส์เกาหลี	-14759
ธุรกิจบริการ	-14760
นายกเทศมนตรี	-14761
บ้านพักอาศัย	-14762
ประเทศอังกฤษ	-14763
>	-14764
<	-14765
_	-14766
า	-14767
ร	-14768
น	-14769
อ	-14770
ก	-14771
่	-14772
เ	-14773
ง	-14774
ม	-14775
้	-14776
ั	-14777
ี	-14778
ล	-14779
ย	-14780
ว	-14781
ด	-14782
ท	-14783
ส	-14784
บ	-14785
ิ	-14786
ต	-14787
ค	-14788
ห	-14789
ะ	-14790
ป	-14791
แ	-14792
จ	-14793
e	-14794
พ	-14795
ุ	-14796
ข	-14797
ไ	-14798
์	-14799
ช	-14800
ื	-14801
ใ	-14802
o	-14803
n	-14804
ู	-14805
r	-14806
a	-14807
ํ	-14808
s	-14809
็	-14810
i	-14811
โ	-14812
t	-14813
p	-14814
ถ	-14815
ผ	-14816
0	-14817
.	-14818
ศ	-14819
ณ	-14820
l	-14821
ซ	-14822
ึ	-14823
1	-14824
ภ	-14825
2	-14826
ษ	-14827
ธ	-14828
d	-14829
,	-14830
▁	-14831
-	-14832
u	-14833
c	-14834
h	-14835
ฟ	-14836
ญ	-14837
m	-14838
S	-14839
5	-14840
g	-14841
3	-14842
A	-14843
T	-14844
C	-14845
ๆ	-14846
(	-14847
)	-14848
P	-14849
y	-14850
4	-14851
E	-14852
6	-14853
M	-14854
b	-14855
9	-14856
k	-14857
I	-14858
8	-14859
f	-14860
D	-14861
R	-14862
O	-14863
B	-14864
v	-14865
7	-14866
L	-14867
w	-14868
N	-14869
G	-14870
ฉ	-14871
F	-14872
:	-14873
ฐ	-14874
H	-14875
ฝ	-14876
"	-14877
W	-14878
U	-14879
ฮ	-14880
ฒ	-14881
=	-14882
“	-14883
”	-14884
๊	-14885
V	-14886
!	-14887
ฯ	-14888
K	-14889
ฤ	-14890
ฏ	-14891
ฬ	-14892
x	-14893
ฑ	-14894
ฆ	-14895
Y	-14896
๋	-14897
z	-14898
ฎ	-14899
&	-14900
J	-14901
–	-14902
X	-14903
;	-14904
j	-14905
?	-14906
+	-14907
'	-14908
%	-14909
Z	-14910
©	-14911
•	-14912
’	-14913
Q	-14914
๑	-14915
*	-14916
q	-14917
๒	-14918
๐	-14919
๕	-14920
‘	-14921
с	-14922
к	-14923
@	-14924
|	-14925
а	-14926
๖	-14927
฿	-14928
и	-14929
р	-14930
๓	-14931
»	-14932
๗	-14933
ç	-14934
๔	-14935
๙	-14936
ñ	-14937
λ	-14938
у	-14939
$	-14940
н	-14941
š	-14942
๘	-14943
中	-14944
ê	-14945
文	-14946
ا	-14947
→	-14948
^	-14949
ı	-14950
➞	-14951
ر	-14952
ü	-14953
—	-14954
л	-14955
č	-14956
›	-14957
й	-14958
★	-14959
ل	-14960
️	-14961
`	-14962
г	-14963
ь	-14964
ي	-14965
本	-14966
о	-14967
日	-14968
·	-14969
ฺ	-14970
語	-14971
à	-14972
국	-14973
한	-14974
ế	-14975
ά	-14976
η	-14977
ι	-14978
κ	-14979
ν	-14980
어	-14981
Ε	-14982
е	-14983
ї	-14984
ฌ	-14985
ệ	-14986
é	-14987
●	-14988
ع	-14989
~	-14990
ب	-14991
ъ	-14992
ة	-14993
′	-14994
®	-14995
б	-14996
